{"0": "!", "1": "\"", "2": "#", "3": "$", "4": "%", "5": "&", "6": "'", "7": "(", "8": ")", "9": "*", "10": "+", "11": ",", "12": "-", "13": ".", "14": "/", "15": "0", "16": "1", "17": "2", "18": "3", "19": "4", "20": "5", "21": "6", "22": "7", "23": "8", "24": "9", "25": ":", "26": ";", "27": "<", "28": "=", "29": ">", "30": "?", "31": "@", "32": "A", "33": "B", "34": "C", "35": "D", "36": "E", "37": "F", "38": "G", "39": "H", "40": "I", "41": "J", "42": "K", "43": "L", "44": "M", "45": "N", "46": "O", "47": "P", "48": "Q", "49": "R", "50": "S", "51": "T", "52": "U", "53": "V", "54": "W", "55": "X", "56": "Y", "57": "Z", "58": "[", "59": "\\", "60": "]", "61": "^", "62": "_", "63": "`", "64": "a", "65": "b", "66": "c", "67": "d", "68": "e", "69": "f", "70": "g", "71": "h", "72": "i", "73": "j", "74": "k", "75": "l", "76": "m", "77": "n", "78": "o", "79": "p", "80": "q", "81": "r", "82": "s", "83": "t", "84": "u", "85": "v", "86": "w", "87": "x", "88": "y", "89": "z", "90": "{", "91": "|", "92": "}", "93": "~", "94": "\u00a1", "95": "\u00a2", "96": "\u00a3", "97": "\u00a4", "98": "\u00a5", "99": "\u00a6", "100": "\u00a7", "101": "\u00a8", "102": "\u00a9", "103": "\u00aa", "104": "\u00ab", "105": "\u00ac", "106": "\u00ae", "107": "\u00af", "108": "\u00b0", "109": "\u00b1", "110": "\u00b2", "111": "\u00b3", "112": "\u00b4", "113": "\u00b5", "114": "\u00b6", "115": "\u00b7", "116": "\u00b8", "117": "\u00b9", "118": "\u00ba", "119": "\u00bb", "120": "\u00bc", "121": "\u00bd", "122": "\u00be", "123": "\u00bf", "124": "\u00c0", "125": "\u00c1", "126": "\u00c2", "127": "\u00c3", "128": "\u00c4", "129": "\u00c5", "130": "\u00c6", "131": "\u00c7", "132": "\u00c8", "133": "\u00c9", "134": "\u00ca", "135": "\u00cb", "136": "\u00cc", "137": "\u00cd", "138": "\u00ce", "139": "\u00cf", "140": "\u00d0", "141": "\u00d1", "142": "\u00d2", "143": "\u00d3", "144": "\u00d4", "145": "\u00d5", "146": "\u00d6", "147": "\u00d7", "148": "\u00d8", "149": "\u00d9", "150": "\u00da", "151": "\u00db", "152": "\u00dc", "153": "\u00dd", "154": "\u00de", "155": "\u00df", "156": "\u00e0", "157": "\u00e1", "158": "\u00e2", "159": "\u00e3", "160": "\u00e4", "161": "\u00e5", "162": "\u00e6", "163": "\u00e7", "164": "\u00e8", "165": "\u00e9", "166": "\u00ea", "167": "\u00eb", "168": "\u00ec", "169": "\u00ed", "170": "\u00ee", "171": "\u00ef", "172": "\u00f0", "173": "\u00f1", "174": "\u00f2", "175": "\u00f3", "176": "\u00f4", "177": "\u00f5", "178": "\u00f6", "179": "\u00f7", "180": "\u00f8", "181": "\u00f9", "182": "\u00fa", "183": "\u00fb", "184": "\u00fc", "185": "\u00fd", "186": "\u00fe", "187": "\u00ff", "188": "\u0100", "189": "\u0101", "190": "\u0102", "191": "\u0103", "192": "\u0104", "193": "\u0105", "194": "\u0106", "195": "\u0107", "196": "\u0108", "197": "\u0109", "198": "\u010a", "199": "\u010b", "200": "\u010c", "201": "\u010d", "202": "\u010e", "203": "\u010f", "204": "\u0110", "205": "\u0111", "206": "\u0112", "207": "\u0113", "208": "\u0114", "209": "\u0115", "210": "\u0116", "211": "\u0117", "212": "\u0118", "213": "\u0119", "214": "\u011a", "215": "\u011b", "216": "\u011c", "217": "\u011d", "218": "\u011e", "219": "\u011f", "220": "\u0120", "221": "\u0121", "222": "\u0122", "223": "\u0123", "224": "\u0124", "225": "\u0125", "226": "\u0126", "227": "\u0127", "228": "\u0128", "229": "\u0129", "230": "\u012a", "231": "\u012b", "232": "\u012c", "233": "\u012d", "234": "\u012e", "235": "\u012f", "236": "\u0130", "237": "\u0131", "238": "\u0132", "239": "\u0133", "240": "\u0134", "241": "\u0135", "242": "\u0136", "243": "\u0137", "244": "\u0138", "245": "\u0139", "246": "\u013a", "247": "\u013b", "248": "\u013c", "249": "\u013d", "250": "\u013e", "251": "\u013f", "252": "\u0140", "253": "\u0141", "254": "\u0142", "255": "\u0143", "256": "\u0120t", "257": "\u0120a", "258": "\u0120th", "259": "in", "260": "er", "261": "\u0120w", "262": "\u0120s", "263": "ou", "264": "\u0120the", "265": "re", "266": "on", "267": "at", "268": "en", "269": "\u0120c", "270": "it", "271": "is", "272": "\u0120b", "273": "nd", "274": "\u0120d", "275": "\u0120m", "276": "\u0120h", "277": "\u0120o", "278": "ing", "279": "es", "280": "\u0120p", "281": "\u0120to", "282": "an", "283": "\u0120f", "284": "or", "285": "ll", "286": "\u0120I", "287": "\u0120l", "288": "\u0120y", "289": "ar", "290": "\u0120g", "291": "\u0120you", "292": "ed", "293": "\u0120and", "294": "\u0120in", "295": "\u0120of", "296": "as", "297": "\u0120n", "298": "om", "299": "ic", "300": "\u0120that", "301": "us", "302": "et", "303": "ve", "304": "al", "305": "ow", "306": "le", "307": "\u0120is", "308": "\u0120e", "309": "\u0120it", "310": "ot", "311": "'s", "312": "\u0120be", "313": "ion", "314": "\u0120T", "315": "\u0120wh", "316": "\u0120A", "317": "ent", "318": "\u0120S", "319": "\u0120re", "320": "ay", "321": "\u0120we", "322": "\u0120on", "323": "ere", "324": "\u0120ha", "325": "ut", "326": "ac", "327": "id", "328": "ig", "329": "os", "330": "ke", "331": "ver", "332": "im", "333": "\u0120\u00d0", "334": "\u0120Th", "335": "am", "336": "all", "337": "\u0120for", "338": "el", "339": "ch", "340": "ro", "341": "\u0120this", "342": "\u0120st", "343": "\u0120W", "344": "\u0120u", "345": "ad", "346": "out", "347": "ir", "348": "ld", "349": "ct", "350": "\u0120k", "351": "if", "352": "\u0120go", "353": "..", "354": "\u00d0\u00be", "355": "ith", "356": "ly", "357": "ht", "358": "qu", "359": "\u0120-", "360": "\u0120do", "361": "\u0120j", "362": "\u0120have", "363": "\u0120B", "364": "\u0120an", "365": "\u0120with", "366": "\u0120are", "367": "\u0120r", "368": "\u0120de", "369": "\u0120se", "370": "\u0120so", "371": "\u0120v", "372": "st", "373": "ill", "374": "ur", "375": "\u0120li", "376": "\u0120M", "377": "est", "378": "od", "379": "ally", "380": "'t", "381": "ust", "382": "\u0120as", "383": "\u0120C", "384": "ce", "385": "\u0120me", "386": "\u00d0\u00b0", "387": "\u00d0\u00b5", "388": "il", "389": "\u0120H", "390": "\u0120was", "391": "ter", "392": "th", "393": "\u0120can", "394": "ant", "395": "\u0120com", "396": "our", "397": "ight", "398": "\u0120Y", "399": "ation", "400": "\u0120And", "401": "ol", "402": "\u0120sh", "403": "\u00d1\u0124", "404": "op", "405": "se", "406": "\u0120not", "407": "\u0120So", "408": "\u0120ne", "409": "un", "410": "\u0120ab", "411": "\u0120like", "412": "\u0120at", "413": "\u0120D", "414": "ie", "415": "\u0120he", "416": "\u0120con", "417": "\u0120ch", "418": "ore", "419": "\u0120al", "420": "\u0120or", "421": "\u0120qu", "422": "\u0120O", "423": "ome", "424": "ra", "425": "ul", "426": "\u0120N", "427": "pp", "428": "\u0120your", "429": "ould", "430": "\u0120P", "431": "\u0120fr", "432": "ge", "433": "ers", "434": "'re", "435": "\u00d0\u00b8", "436": "\u0120they", "437": "\u0120what", "438": "use", "439": "\u0120all", "440": "\u0120The", "441": "\u0120L", "442": "ess", "443": "em", "444": "\u0120kn", "445": "\u0120just", "446": "art", "447": "\u0120pro", "448": "very", "449": "um", "450": "\u0120lo", "451": "\u0120\u00ec", "452": "\u0120my", "453": "ok", "454": "\u0120ex", "455": "ab", "456": "\u0120there", "457": "\u0120but", "458": "\u0120know", "459": "\u0120su", "460": "\u0120G", "461": "\u00d1\u0123", "462": "\u0120E", "463": "\u0120ma", "464": "\u00d0\u00be\u00d0", "465": "\u0120en", "466": "\u0120about", "467": "\u0120It", "468": "ist", "469": "\u0120wor", "470": "ri", "471": "ind", "472": "\u0120one", "473": "ate", "474": "and", "475": "ink", "476": "\u0120le", "477": "ort", "478": "'m", "479": "\u0120F", "480": "ich", "481": "\u00d1\u0122", "482": "ide", "483": "\u0120get", "484": "\u0120out", "485": "...", "486": "\u0120will", "487": "\u00e3\u0123", "488": "ive", "489": "\u00d0\u00bd", "490": "\u0120from", "491": "ain", "492": "\u0120We", "493": "\u0120up", "494": "pe", "495": "res", "496": "ca", "497": "\u0120R", "498": "\u0120if", "499": "\u0120pl", "500": "\u0120don", "501": "ack", "502": "\u01201", "503": "\u0120\"", "504": "\u0120tr", "505": "\u0120us", "506": "\u0120Wh", "507": "ity", "508": "\u0120J", "509": "\u0120You", "510": "\u0120here", "511": "her", "512": "\u0120some", "513": "oug", "514": "ak", "515": "ard", "516": "\u0120going", "517": "\u0120un", "518": "ment", "519": "\u0120think", "520": "\u0120pe", "521": "end", "522": "\u0120(", "523": "cause", "524": "\u0120tim", "525": "ast", "526": "\u00c3\u00a9", "527": "\u0120our", "528": "\u0120want", "529": "ame", "530": "ies", "531": "\u0120\u00eb", "532": "ud", "533": "ine", "534": "\u0120really", "535": "\u0120te", "536": "\u0120see", "537": "ci", "538": "\u0120by", "539": "so", "540": "ure", "541": "ose", "542": "\u0120[", "543": "are", "544": "\u0120more", "545": "ah", "546": "one", "547": "ck", "548": "ople", "549": "\u00d0\u00b0\u00d0", "550": "\u0120then", "551": "\u0120thing", "552": "\u0120them", "553": "ven", "554": "ound", "555": "ost", "556": "ong", "557": "ect", "558": "\u0120right", "559": "ag", "560": "\u0120int", "561": "\u0120people", "562": "\u0120when", "563": "ous", "564": "pl", "565": "\u0120time", "566": "\u0120im", "567": "\u0120who", "568": "\u01202", "569": "ap", "570": "\u0120because", "571": "hing", "572": "\u0120no", "573": "ice", "574": "\u0120look", "575": "\u0120has", "576": "\u0120would", "577": "\u0120how", "578": "act", "579": "\u0120fe", "580": "nt", "581": "ough", "582": "\u0120pr", "583": "\u0120But", "584": "\u0120say", "585": "\u00d1\u0125", "586": "\u0120now", "587": "\u0120man", "588": "\u0120very", "589": "\u0120work", "590": "iz", "591": "\u0120K", "592": "iv", "593": "itt", "594": "\u0120ar", "595": "ep", "596": "\u0120cl", "597": "\u0120which", "598": "\u0120co", "599": "ans", "600": "'ve", "601": "\u0120sa", "602": "ff", "603": "'ll", "604": "\u0120any", "605": "\u0120act", "606": "\u0120ye", "607": "ber", "608": "ach", "609": "age", "610": "per", "611": "\u0120also", "612": "fer", "613": "\u0120these", "614": "\u0120ad", "615": "\u00d0\u00b5\u00d0", "616": "ther", "617": "ace", "618": "ick", "619": "ake", "620": "reat", "621": "ire", "622": "ue", "623": "\u0120ag", "624": "\u0120U", "625": "uch", "626": "ions", "627": "ry", "628": "00", "629": "na", "630": "\u0120did", "631": "\u0120que", "632": "\u0120had", "633": "\u0120every", "634": "\u0120He", "635": "\u0120la", "636": "\u0120way", "637": "\u0120sp", "638": "ble", "639": "\u0120This", "640": "ass", "641": "\u0120their", "642": "ite", "643": "\u0120need", "644": "\u0120part", "645": "\u0120were", "646": "\u0120back", "647": "ip", "648": "own", "649": "omet", "650": "be", "651": "ase", "652": "\u0120make", "653": "irst", "654": "ia", "655": "ence", "656": "ang", "657": "ank", "658": "\u0120got", "659": "\u0120pre", "660": "\u0120cont", "661": "\u0120other", "662": "pt", "663": "\u0120That", "664": "og", "665": "\u0120good", "666": "\u0120into", "667": "alk", "668": "\u0120been", "669": "\u0120am", "670": "\u0120over", "671": "ually", "672": "\u0120\u00e2", "673": "\u00ec\u013f", "674": "\u0120und", "675": "he", "676": "way", "677": "\u0120gr", "678": "\u00d1\u012e", "679": "\u0120dif", "680": "\u0120per", "681": "\u00d1\u0131", "682": "\u0120In", "683": "\u0120tw", "684": "ond", "685": "ars", "686": "int", "687": "orm", "688": "\u0120lot", "689": "\u0120where", "690": "\u0120\u00c3", "691": "\u0120V", "692": "\u0120somet", "693": "\u00d0\u00bb", "694": "ens", "695": "\u0120gu", "696": "\u0120ac", "697": "ug", "698": "\u00d1\u012d", "699": "\u00c4\u00b1", "700": "\u0120first", "701": "ree", "702": "\u0120his", "703": "ittle", "704": "\u0120imp", "705": "\u0120mo", "706": "av", "707": "\u0120little", "708": "\u0120What", "709": "\u0120much", "710": "\u0120z", "711": "\u0120\u00ea", "712": "able", "713": "\u0120\u00d0\u00bf", "714": "\u0120po", "715": "\u0120comp", "716": "ne", "717": "\u0120dis", "718": "\u0120let", "719": "ance", "720": "\u0120her", "721": "\u0120things", "722": "\u0120start", "723": "ult", "724": "\u0120app", "725": "\u0120res", "726": "\u0120fo", "727": "\u0120could", "728": "\u0120inter", "729": "\u0120those", "730": "\u0120des", "731": "\u0120well", "732": "\u0120two", "733": "\u0120kind", "734": "xt", "735": "ress", "736": "ely", "737": "\u00c3\u00a4", "738": "\u0120br", "739": "\u0120thr", "740": "\u0120\u00d0\u00b2", "741": "\u0120i", "742": "ish", "743": "\u0120differ", "744": "\u0120ro", "745": "\u0120St", "746": "\u0120something", "747": "\u0120take", "748": "\u0120bo", "749": "ys", "750": "\u0120she", "751": "\u0120talk", "752": "lo", "753": "\u00d1\u0129", "754": "\u0120even", "755": "\u00d0\u00ba", "756": "\u00e3\u0122", "757": "\u0120\u00d0\u00bd", "758": "\u0120bu", "759": "\u0120If", "760": "\u0120down", "761": "\u0120Ch", "762": "ade", "763": "ations", "764": "\u0120use", "765": "ord", "766": "\u0120off", "767": "\u0120actually", "768": "\u0120spe", "769": "du", "770": "ated", "771": "ater", "772": "oss", "773": "ning", "774": "\u00c3\u00bc", "775": "\u0120does", "776": "\u0120\u00d1\u0123", "777": "\u0120new", "778": "\u0120bet", "779": "vel", "780": "cess", "781": "ple", "782": "\u0120happ", "783": "ting", "784": "onna", "785": "\u0120es", "786": "\u0120day", "787": "\u0120only", "788": "ign", "789": "kay", "790": "sel", "791": "ents", "792": "ount", "793": "ild", "794": "ile", "795": "\u0120sc", "796": "\u0120him", "797": "\u0120again", "798": "ving", "799": "\u0120gonna", "800": "\u0120comm", "801": "\u0120hel", "802": "other", "803": "\u0120ke", "804": "ical", "805": "\u01203", "806": "\u0120el", "807": "\u0120through", "808": "\u0120come", "809": "ark", "810": "day", "811": "ier", "812": "\u00c3\u00b3", "813": "\u0120than", "814": "\u0120They", "815": "\u0120may", "816": "\u0120ser", "817": "\u00ed\u0137", "818": "\u0120call", "819": "\u0120different", "820": "\u0120should", "821": "\u0120There", "822": "ary", "823": "\u0120Now", "824": "\u00e3\u0124", "825": "thing", "826": "we", "827": "ory", "828": "fter", "829": "\u0120put", "830": "ors", "831": "ial", "832": "\u00eb\u012d", "833": "\u0120under", "834": "\u0120inc", "835": "\u0120Ye", "836": "ub", "837": "form", "838": "\u0120vide", "839": "\u00e0\u00b8", "840": "vers", "841": "\u0120feel", "842": "\u00c3\u00a1", "843": "ody", "844": "ft", "845": "fore", "846": "\u0120em", "847": "get", "848": "\u0120said", "849": "ition", "850": "\u0120rec", "851": "ious", "852": "atch", "853": "\u0120try", "854": "\u0120help", "855": "\u0120show", "856": "\u00d0\u00b4", "857": "\u0120bit", "858": "ull", "859": "\u00d0\u00b2", "860": "\u00d1\u0124\u00d0\u00be", "861": "gr", "862": "\u0120play", "863": "ife", "864": "ail", "865": "\u0120Yeah", "866": "\u0120quest", "867": "\u0120many", "868": "\u0120pers", "869": "\u0120great", "870": "\u00c3\u0143", "871": "\u0120est", "872": "ng", "873": "\u0120\u00e2\u013b", "874": "ty", "875": "la", "876": "\u0120Oh", "877": "\u0120\u00d7", "878": "\u00e0\u00ae", "879": "\u0120Be", "880": "ady", "881": "\u0120most", "882": "ction", "883": "\u0120No", "884": "\u0120doing", "885": "\u0120being", "886": "\u0120too", "887": "ces", "888": "\u0120bl", "889": ".\"", "890": "\u0120rem", "891": "iss", "892": "ons", "893": ">>", "894": "ru", "895": "wn", "896": "ont", "897": "ib", "898": "ell", "899": "\u0120sm", "900": "oth", "901": "ual", "902": "\u0120>>", "903": "\u0120ph", "904": "les", "905": "oc", "906": "ful", "907": "\u0120sec", "908": "ise", "909": "\u0120add", "910": "igh", "911": "ert", "912": "\u0120same", "913": "\u00e2\u0122", "914": "\u0120mean", "915": "\u0120find", "916": "ek", "917": "\u0120end", "918": "--", "919": "\u00d0\u00bc", "920": "\u0120still", "921": "az", "922": "\u0120'", "923": "\u0120min", "924": "\u0120years", "925": "urn", "926": "\u0120around", "927": "self", "928": "\u0120wr", "929": "bs", "930": "ought", "931": "\u0120\u00e2\u013b\u00aa", "932": "\u0120fl", "933": "ange", "934": "\u0120after", "935": "\u0120point", "936": "mer", "937": "ved", "938": "\u0120long", "939": "oy", "940": "\u00e4\u00b8", "941": "\u0120cr", "942": "ways", "943": "\u0120sy", "944": "\u0120tra", "945": "\u012020", "946": "ave", "947": "\u0120che", "948": "\u0120ent", "949": "\u0120before", "950": "ph", "951": "\u0120att", "952": "ian", "953": "ily", "954": "\u0120person", "955": "\u0120big", "956": "\u0120sch", "957": "\u0120real", "958": "\u0120next", "959": "\u0120love", "960": "\u0120video", "961": "\u0120Let", "962": "\u0120fin", "963": "\u0120mak", "964": "ible", "965": "\u0120today", "966": "erm", "967": "\u0120Al", "968": "ower", "969": "ann", "970": "ix", "971": "\u0120par", "972": "\u0120stud", "973": "\u00c3\u00b6", "974": "\u0120import", "975": "te", "976": "\u0120give", "977": "ves", "978": "\u0120die", "979": "\u0120dec", "980": "\u0120tell", "981": "\u0120\u00d0\u00ba", "982": "\u00d1\u0123\u00d1\u0124", "983": "\u0120why", "984": "ically", "985": "ict", "986": "red", "987": "\u0120bas", "988": "\u0120sure", "989": "\u0120bel", "990": "ating", "991": "\u0120tak", "992": "\u0120set", "993": "\u0120life", "994": "\u0120didn", "995": "\u00d8\u00a7", "996": "ob", "997": "und", "998": "ath", "999": "\u0120op", "1000": "\u0120\u00d0\u00be", "1001": "ait", "1002": "\u0120world", "1003": "\u0120supp", "1004": "io", "1005": "\u0120cour", "1006": "\u0120\u00d0\u00b8", "1007": "ward", "1008": "\u00d0\u00b5\u00d0\u00bd", "1009": "\u0120always", "1010": "up", "1011": "\u0120hand", "1012": "\u0120How", "1013": "cial", "1014": "\u0120cons", "1015": "\u0120\u00d1", "1016": "\u0120ind", "1017": "\u01204", "1018": "\u0120As", "1019": "\u0120fun", "1020": "ject", "1021": "\u0120important", "1022": "\u0120sur", "1023": "ew", "1024": "ates", "1025": "\u01205", "1026": "\u0120di", "1027": "\u0120made", "1028": "\u0120ins", "1029": "\u0120ask", "1030": "\u0120et", "1031": "\u0120num", "1032": "\u0120car", "1033": "\u0120Okay", "1034": "\u0120sim", "1035": "ik", "1036": "\u0120last", "1037": "\u0120Go", "1038": "\u0120mus", "1039": "\u0120rel", "1040": "ular", "1041": "\u00b4\u00ec", "1042": "\u0120Well", "1043": "pect", "1044": "\u0120Thank", "1045": "\u0120three", "1046": "\u00c3\u00a3", "1047": "\u00e3\u0125", "1048": "\u0120inv", "1049": "\u0120gen", "1050": "lic", "1051": "\u0120happen", "1052": "\u00eb\u012c", "1053": "ien", "1054": "ever", "1055": "\u00d0\u00be\u00d0\u00b2", "1056": "\u0120str", "1057": "\u0120All", "1058": "\u0120inst", "1059": "\u0120\u00e2\u0122", "1060": "\u0120def", "1061": "\u0120sl", "1062": "\u0120might", "1063": "ung", "1064": "\u0120year", "1065": "\u0120own", "1066": "\u0120keep", "1067": "body", "1068": "der", "1069": "\u0120\u00d1\u0124", "1070": "\u0120\u00d0\u00b4", "1071": "\u0120another", "1072": "\u0120mod", "1073": "\u0120ev", "1074": "\u0120guys", "1075": "\u0120able", "1076": "\u00c3\u00a3o", "1077": "que", "1078": "ident", "1079": "\u0120Yes", "1080": "\u0120its", "1081": "\u0120place", "1082": "\u0120produ", "1083": "arn", "1084": "\u0120\u00d0\u00bc", "1085": "\u0120rep", "1086": "\u0120exper", "1087": "\u0120fam", "1088": "ities", "1089": "ific", "1090": "\u0120high", "1091": "ied", "1092": "ool", "1093": "iew", "1094": "\u00d0\u00b5\u00d1\u0124", "1095": "ren", "1096": "\u0120done", "1097": "\u0120...", "1098": "\u00eb\u012c\u0136", "1099": "stem", "1100": "\u0120Se", "1101": "\u0120better", "1102": "come", "1103": "\u0120del", "1104": "\u0120ty", "1105": "\u0120um", "1106": "\u0120ho", "1107": "\u0120An", "1108": "\u0120mon", "1109": "ings", "1110": "\u0120sk", "1111": "\u0120ob", "1112": "com", "1113": "blem", "1114": "ope", "1115": "stand", "1116": "'d", "1117": "ments", "1118": "\u0120ele", "1119": "\u0120Is", "1120": "\u0120da", "1121": "\u0120reg", "1122": "lease", "1123": "ike", "1124": "als", "1125": "ize", "1126": "\u00ea\u00b0", "1127": "\u0120care", "1128": "\u0120never", "1129": "\u00ec\u013f\u00b4", "1130": "ese", "1131": "\u0120met", "1132": "olog", "1133": "\u0120When", "1134": "uck", "1135": "\u00d0\u00b5\u00d1\u0122", "1136": "\u0120\u00c3\u00a9", "1137": "\u0120dat", "1138": "\u00c3\u00a7", "1139": "\u0120exam", "1140": "ility", "1141": "\u0120det", "1142": "cri", "1143": "\u0120used", "1144": "\u0120Do", "1145": "\u0120trans", "1146": "eg", "1147": "ten", "1148": "\u00d1\u0130", "1149": "cus", "1150": "\u0120second", "1151": "\u0120best", "1152": "\u0120hard", "1153": "\u0120ide", "1154": "\u0120problem", "1155": "\u00ea\u00b3", "1156": "\u0120Un", "1157": "\u00d1\u0127", "1158": "\u0120\u00ce", "1159": "\u0120watch", "1160": "\u0120Sh", "1161": "atter", "1162": "\u0120pret", "1163": "\u0120der", "1164": "\u0120course", "1165": "\u00c5\u0141", "1166": "ative", "1167": "ics", "1168": "\u0120question", "1169": "ute", "1170": "\u00ec\u0139", "1171": "\u0120For", "1172": "ather", "1173": "\u0120col", "1174": "iend", "1175": "\u0120\u00ed", "1176": "\u0120Z", "1177": "\u0120doesn", "1178": "arch", "1179": "\u0120interest", "1180": "\u0120pol", "1181": "\u0120cor", "1182": "ience", "1183": "\u0120pres", "1184": "\u0120each", "1185": "\u0120system", "1186": "\u0120fact", "1187": "iel", "1188": "ably", "1189": "\u0120er", "1190": "\u0120run", "1191": "\u0120\u00ec\u013f", "1192": "\u0120top", "1193": "ner", "1194": "\u0120thought", "1195": "\u0120eas", "1196": "ient", "1197": "\u0120cre", "1198": "\u00d1\u012a", "1199": "\u0120commun", "1200": "ye", "1201": "ready", "1202": "llow", "1203": "\u0120everything", "1204": "omm", "1205": "\u0120med", "1206": "\u013c\u0136", "1207": "\u0120count", "1208": "its", "1209": "\u0120compl", "1210": "hip", "1211": "\u00d9\u0126", "1212": "ook", "1213": "\u0120toget", "1214": "\u0120together", "1215": "amp", "1216": "\u0120game", "1217": "\u0120already", "1218": "\u00d0\u00b0\u00d0\u00bb", "1219": "\u0120called", "1220": "ale", "1221": "\u00c5\u0124", "1222": "\u0120My", "1223": "\u0120understand", "1224": "\u0120dr", "1225": "\u0120mom", "1226": "ited", "1227": "\u00d0\u00be\u00d0\u00bb", "1228": "\u0120using", "1229": "zy", "1230": "\u0120number", "1231": "\u00e3\u0122\u0123", "1232": "ced", "1233": "\u0120cle", "1234": "\u00d0\u00bd\u00d0\u00be", "1235": "\u00eb\u012d\u00a4", "1236": "ince", "1237": "\u0120looking", "1238": "\u0120pretty", "1239": "\u0120prob", "1240": "\u0120She", "1241": "\u0120ve", "1242": "\u0120getting", "1243": "\u0120week", "1244": "\u0120eff", "1245": "uff", "1246": "air", "1247": "ues", "1248": "ern", "1249": "\u0120Q", "1250": "oup", "1251": "ention", "1252": "\u0120side", "1253": "\u00d0\u00be\u00d0\u00bc", "1254": "\u0120form", "1255": "\u0120bus", "1256": "\u0120ass", "1257": "\u0120ed", "1258": "ason", "1259": "ween", "1260": "\u00e2\u0122\u00a6", "1261": "\u0120turn", "1262": "\u0120cur", "1263": "\u0120coll", "1264": "\u0120dire", "1265": "\u0120God", "1266": "\u012010", "1267": "\u0120equ", "1268": "\u0120\u00d0\u00b1", "1269": "\u0120open", "1270": "\u0120such", "1271": "ird", "1272": "\u00d0\u00b0\u00d0\u00ba", "1273": "\u0120ear", "1274": "\u00c4\u013b", "1275": "gan", "1276": "\u0120partic", "1277": "\u0120friend", "1278": "\u0120exp", "1279": "\u0120ext", "1280": "\u0120home", "1281": "\u0120water", "1282": "\u0120On", "1283": "\u00d1\u0124\u00d1\u012e", "1284": "ork", "1285": "\u0120\u00d0\u00bf\u00d1\u0122", "1286": "\u0120move", "1287": "ness", "1288": "ense", "1289": "ho", "1290": "\u0120char", "1291": "co", "1292": "ins", "1293": "\u0120both", "1294": "\u012019", "1295": "\u0120gra", "1296": "\u0120between", "1297": "\u00e1\u00bb", "1298": "\u0120\u00ec\u0137", "1299": "ash", "1300": "\u0120Re", "1301": "ai", "1302": "alth", "1303": "ures", "1304": "ember", "1305": "\u0120av", "1306": "\u0120ver", "1307": "\u00c3\u00aa", "1308": "oney", "1309": "\u0120thank", "1310": "\u0120maybe", "1311": "uc", "1312": "ime", "1313": "\u00ea\u00b3\u0142", "1314": "\u0120away", "1315": "\u0120name", "1316": "ouse", "1317": "\u0120acc", "1318": "\u0120music", "1319": "\u0120change", "1320": "\u0120pass", "1321": "ger", "1322": "\u0120build", "1323": "\u0120val", "1324": "iness", "1325": "any", "1326": "\u0120few", "1327": "\u00b4\u00eb", "1328": "ta", "1329": "\u0120list", "1330": "\u00c3\u00a5", "1331": "\u0120old", "1332": "\u0120\u00ec\u0140", "1333": "\u0120sort", "1334": "\u0120mem", "1335": "\u0120ca", "1336": "cept", "1337": "\u0120gener", "1338": "\u0120yeah", "1339": "\u0120while", "1340": "\u0120anything", "1341": "ric", "1342": "gram", "1343": "\u0120ein", "1344": "cy", "1345": "uring", "1346": "\u0120De", "1347": "\u0120power", "1348": "\u0120coming", "1349": "\u0120word", "1350": "\u0120--", "1351": "\u0120belie", "1352": "\u0120found", "1353": "to", "1354": "\u00d0\u00bf", "1355": "\u0120means", "1356": "\u0120inform", "1357": "\u0120\u00d8", "1358": "\u0120\u00d1\u0129", "1359": "\u0120small", "1360": "000", "1361": "\u0120came", "1362": "\u0120\u00ed\u0137", "1363": "wh", "1364": "\u0120working", "1365": "\u0120example", "1366": "\u0120pos", "1367": "\u0120dep", "1368": "\u00ea\u00b2", "1369": "\u00e4\u00ba", "1370": "ote", "1371": "\u0120dem", "1372": "\u00ec\u00a7", "1373": "ts", "1374": "\u0120var", "1375": "aut", "1376": "\u0120tri", "1377": "chn", "1378": "\u0120head", "1379": "\u0120whole", "1380": "\u00d7\u013b", "1381": "ze", "1382": "\u0120trying", "1383": "\u0120tem", "1384": "\u0120cou", "1385": "ets", "1386": "\u01206", "1387": "\u0120fil", "1388": "velop", "1389": "\u0120case", "1390": "\u00e0\u00af", "1391": "\u0120probably", "1392": "\u0120okay", "1393": "\u0120plan", "1394": "\u0120sit", "1395": "\u0120school", "1396": "\u0120Then", "1397": "\u00b8\u00eb", "1398": "me", "1399": "\u0120process", "1400": "\u0120far", "1401": "\u0120read", "1402": "\u0120poss", "1403": "\u0120bre", "1404": "\u0120sol", "1405": "icht", "1406": "\u0120support", "1407": "\u0120To", "1408": "ertain", "1409": "\u0120started", "1410": "\u0120cap", "1411": "\u0120left", "1412": "\u0120data", "1413": "\u0120times", "1414": "\u00d0\u00b5\u00d0\u00bb", "1415": "\u0120wanted", "1416": "\u00d0\u00b0\u00d0\u00bd", "1417": "\u0120talking", "1418": "\u0120ist", "1419": "\u0120having", "1420": "ump", "1421": "\u0120contin", "1422": "\u0120sub", "1423": "\u0120\u00d0\u00b7", "1424": "pr", "1425": "\u00eb\u012d\u012a", "1426": "ina", "1427": "\u00c5\u00bc", "1428": "\u0120creat", "1429": "ode", "1430": "\u00d7\u0137", "1431": "\u00e6\u013a", "1432": "!!", "1433": "\u0120term", "1434": "ism", "1435": "\u00d0\u00be\u00d0\u00b4", "1436": "\u0120Because", "1437": "\u0120went", "1438": "ider", "1439": "\u0120prov", "1440": "\u0120child", "1441": "\u0120den", "1442": "\u0120light", "1443": "br", "1444": "\u00b3\u00d0\u00be", "1445": "oh", "1446": "\u0120book", "1447": "\u0120\u00d9", "1448": "ution", "1449": "\u0120Just", "1450": "ene", "1451": "\u0120four", "1452": "\u0120vis", "1453": "\u00ea\u00b0\u0122", "1454": "\u0120hope", "1455": "\u0120making", "1456": "\u0120Le", "1457": "\u00ec\u0137", "1458": "\u0120opp", "1459": "au", "1460": "\u0120money", "1461": "\u0120program", "1462": "\u00c3\u00a8", "1463": "\u0120stand", "1464": "IN", "1465": "\u0120sign", "1466": "\u0120learn", "1467": "\u00c3\u0142", "1468": "\u0120Don", "1469": "\u0120team", "1470": "\u0120\u00d0\u00bd\u00d0\u00b0", "1471": "lud", "1472": "\u0120rest", "1473": "ices", "1474": "\u00e6\u013e", "1475": "\u0120\u00d1\u0122", "1476": "\u0120aut", "1477": "\u0120lead", "1478": "ational", "1479": "de", "1480": "gy", "1481": "\u0120nice", "1482": "\u0120das", "1483": "\u0120dist", "1484": "\u0120hum", "1485": "\u0120One", "1486": "\u00e6\u012a", "1487": "\u0120comes", "1488": "\u0120jo", "1489": "\u0120cent", "1490": "\u0120expl", "1491": "\u0120mark", "1492": "reen", "1493": "led", "1494": "gin", "1495": "\u00ec\u013c\u0136", "1496": "\u0120level", "1497": "\u0120conf", "1498": "ush", "1499": "\u0120develop", "1500": "\u0120test", "1501": "eng", "1502": "vious", "1503": "ature", "1504": "\u00d0\u00b5\u00d0\u00bc", "1505": "ret", "1506": "\u0120je", "1507": "\u0120stuff", "1508": "\u0120class", "1509": "ows", "1510": "\u0120\u00ea\u00b7", "1511": "\u0120si", "1512": "\u0120les", "1513": "rop", "1514": "\u00e7\u013c", "1515": "\u0120por", "1516": "\u0120war", "1517": "\u00ec\u0139\u0132", "1518": "\u0120everyone", "1519": "\u0120ge", "1520": "\u0120check", "1521": "ott", "1522": "\u0120sing", "1523": "\u0120art", "1524": "\u0120follow", "1525": "\u0120201", "1526": "\u0120Fr", "1527": "ais", "1528": "\u00ec\u0138", "1529": "\u00ce\u00b1", "1530": "\u00e5\u00b0", "1531": "\u0120\u00c3\u0142", "1532": "imes", "1533": "\u0120ret", "1534": "\u0120chang", "1535": "\u0120pub", "1536": "\u0120inf", "1537": "\u0120techn", "1538": "ada", "1539": "ives", "1540": "\u0120beh", "1541": "\u00e6\u013a\u00af", "1542": "\u0120looks", "1543": "\u00e3\u0122\u0124", "1544": "\u00d0\u00b7", "1545": "\u0120Why", "1546": "\u00e7\u013c\u0126", "1547": "\u0120enough", "1548": "\u0120bra", "1549": "itch", "1550": "\u00e4\u00bb", "1551": "\u0120adv", "1552": "\u00d0\u00b1", "1553": "\u0120without", "1554": "wer", "1555": "meric", "1556": "den", "1557": "\u0120complet", "1558": "\u0120idea", "1559": "ters", "1560": "ock", "1561": "\u0120defin", "1562": "\u0120ever", "1563": "\u0120gl", "1564": "\u0120once", "1565": "\u0120bring", "1566": "\u0120saying", "1567": "\u0120ans", "1568": "\u0120hear", "1569": "nect", "1570": "\u0120less", "1571": "go", "1572": "ream", "1573": "ado", "1574": "\u00ec\u0140", "1575": "\u0120mind", "1576": "ente", "1577": "\u0120full", "1578": "\u0120bad", "1579": "\u0120wom", "1580": "\u0120someone", "1581": "\u0120du", "1582": "\u0120won", "1583": "\u0120contro", "1584": "ortun", "1585": "\u0120health", "1586": "\u0120cho", "1587": "\u0120Ar", "1588": "\u0120conc", "1589": "\u0120information", "1590": "\u0120stop", "1591": "att", "1592": "ately", "1593": "\u00e4\u00bd", "1594": "\u0120group", "1595": "\u0120\u00d1\u0125", "1596": "\u0120quite", "1597": "\u0120resp", "1598": "ER", "1599": "ught", "1600": "\u00ea\u00b8", "1601": "man", "1602": "ized", "1603": "\u0120Br", "1604": "\u0120remember", "1605": "\u0120family", "1606": "\u0120business", "1607": "aw", "1608": "\u0120spec", "1609": "\u0120au", "1610": "\u0120Or", "1611": "\u00c4\u0127", "1612": "\u0120seen", "1613": "\u0120lar", "1614": "\u01207", "1615": "gg", "1616": "bers", "1617": "\u0120dra", "1618": "\u0120month", "1619": "\u0120says", "1620": "\u0120iss", "1621": "\u0120live", "1622": "\u0120line", "1623": "\u0120moment", "1624": "\u0120exc", "1625": "els", "1626": "\u0120sound", "1627": "\u0120cool", "1628": "\u0120loc", "1629": "\u0120certain", "1630": "\u0120dri", "1631": "\u00d0\u00be\u00d1\u0124", "1632": "ames", "1633": "\u0120must", "1634": "ny", "1635": "\u00d0\u00b8\u00d1\u0124", "1636": "\u0120kid", "1637": "\u0120includ", "1638": "\u00ec\u013f\u0126", "1639": "ator", "1640": "\u00c4\u0141", "1641": "ha", "1642": "ared", "1643": "\u0120seem", "1644": "\u00d0\u00b9", "1645": "\u00ec\u0126", "1646": "\u0120else", "1647": "\u0120\u00ec\u0142", "1648": "irl", "1649": "\u01208", "1650": "\u0120vo", "1651": "\u0120questions", "1652": "ines", "1653": "ee", "1654": "\u00e6\u012a\u0133", "1655": "\u00c3\u00bcr", "1656": "\u0120Americ", "1657": "\u0120story", "1658": "\u0120serv", "1659": "vern", "1660": "ages", "1661": "land", "1662": "\u0120\u00e2\u0122\u0135", "1663": "era", "1664": "\u0120Can", "1665": "\u0120pop", "1666": "ether", "1667": "\u0120na", "1668": "\u0120order", "1669": "\u0120makes", "1670": "\u0120since", "1671": "con", "1672": "ctor", "1673": "\u0120though", "1674": "\u0120product", "1675": "\u00d0\u00bb\u00d0\u00b8", "1676": "\u0120leg", "1677": "\u0120meet", "1678": "alf", "1679": "\u00d1\u0123\u00d1\u0131", "1680": "unch", "1681": "iter", "1682": "ove", "1683": "\u00d7\u0137\u00d7", "1684": "iet", "1685": "\u00d0\u00b0\u00d0\u00bc", "1686": "ital", "1687": "\u0120super", "1688": "ling", "1689": "\u0120pay", "1690": "\u0120para", "1691": "\u0120job", "1692": "\u0120Here", "1693": "\u0120sw", "1694": "ks", "1695": "ption", "1696": "ma", "1697": "\u0120believe", "1698": "\u00ac\u00eb", "1699": "\u0120wait", "1700": "\u00d0\u00be\u00d0\u00b9", "1701": "\u0120unt", "1702": "\u0120quick", "1703": "hr", "1704": "\u0120\u00d1\u012f", "1705": "\u0120Pro", "1706": "\u0120men", "1707": "\u00e0\u00b9", "1708": "\u0120days", "1709": "\u0120goes", "1710": "\u0120speak", "1711": "\u0120At", "1712": "ement", "1713": "\u0120miss", "1714": "\u0120aw", "1715": "\u0120design", "1716": "\u0120project", "1717": "\u00d0\u00be\u00d1\u0122", "1718": "ij", "1719": "ants", "1720": "ats", "1721": "\u0120Chr", "1722": "\u01209", "1723": "\u0120cut", "1724": "\u0120requ", "1725": "\u0120\u00d0\u00bd\u00d0\u00b5", "1726": "\u0120Not", "1727": "aster", "1728": "\u0120mill", "1729": "\u0120particular", "1730": "\u0120pie", "1731": "\u0120students", "1732": "\u0120five", "1733": "oun", "1734": "\u0120Ne", "1735": "\u0120gi", "1736": "\u0120pas", "1737": "\u0120free", "1738": "\u0120Sp", "1739": "lich", "1740": "\u0120prof", "1741": "\u0120eng", "1742": "\u0120prot", "1743": "\u0120Like", "1744": "osed", "1745": "\u0120connect", "1746": "app", "1747": "\u0120\u00eb\u00a7", "1748": "iting", "1749": "\u0120blo", "1750": "\u0120los", "1751": "ists", "1752": "\u0120experience", "1753": "rent", "1754": "\u0120stay", "1755": "\u0120food", "1756": "ton", "1757": "ruct", "1758": "\u0120hist", "1759": "view", "1760": "ining", "1761": "most", "1762": "ivers", "1763": "bo", "1764": "\u00e3\u0123\u0126", "1765": "\u0120Tr", "1766": "gen", "1767": "\u0120please", "1768": "\u0120community", "1769": "\u0120ce", "1770": "AN", "1771": "no", "1772": "\u0120body", "1773": "\u0120hour", "1774": "\u0120vers", "1775": "\u00e1\u00ba", "1776": "cer", "1777": "\u0120\u00ea\u00b0", "1778": "\u0120reason", "1779": "\u0120Right", "1780": "\u0120later", "1781": "\u00cf\u0126", "1782": "\u0120house", "1783": "\u0120X", "1784": "\u00d0\u00be\u00d0\u00bd", "1785": "\u0120state", "1786": "fic", "1787": "\u00e5\u00a4", "1788": "\u00c5\u013d", "1789": "ield", "1790": "\u0120pri", "1791": "\u0120past", "1792": "\u0120walk", "1793": "ology", "1794": "ering", "1795": "anna", "1796": "\u0120ter", "1797": "\u0120hold", "1798": "\u0120organ", "1799": "ben", "1800": "\u00ce\u00bf", "1801": "\u00c3\u00b3n", "1802": "\u0120effect", "1803": "\u0120yourself", "1804": "\u0120plus", "1805": "aj", "1806": "ando", "1807": "ural", "1808": "\u0120room", "1809": "lect", "1810": "\u00ea\u00b2\u012e", "1811": "?\"", "1812": "side", "1813": "\u0120become", "1814": "\u00d1\u0128", "1815": "\u0120\u00c2", "1816": "ood", "1817": "\u0120const", "1818": "\u0120night", "1819": "utes", "1820": "\u00d0\u00b6", "1821": "\u0120break", "1822": "\u0120pain", "1823": "\u0120step", "1824": "ired", "1825": "\u0120nothing", "1826": "\u0120until", "1827": "\u00d1\u0138", "1828": "\u00d0\u00b0\u00d0\u00b2", "1829": "\u00d9\u012c", "1830": "\u0120during", "1831": "\u00ec\u00a7\u0122", "1832": "less", "1833": "oll", "1834": "\u00d0\u00bd\u00d1\u012d", "1835": "\u00ce\u00b9", "1836": "fect", "1837": "iver", "1838": "\u0131\u0126", "1839": "ither", "1840": "ying", "1841": "\u0120begin", "1842": "\u00d7\u013b\u00d7", "1843": "ivid", "1844": "\u0120\u00c3\u00a7", "1845": "\u0120sal", "1846": "\u0120ta", "1847": "\u0120pot", "1848": "\u0120$", "1849": "\u0120mar", "1850": "\u0120clear", "1851": "\u0120face", "1852": "\u0120grow", "1853": "\u0120*", "1854": "\u0120inside", "1855": "\u0120friends", "1856": "\u0120leave", "1857": "enn", "1858": "\u0120easy", "1859": "\u0120area", "1860": "ality", "1861": "oud", "1862": "\u0120eat", "1863": "\u00d9\u0128", "1864": "\u0120pur", "1865": "orn", "1866": "\u0120saw", "1867": "\u0120answer", "1868": "\u0120front", "1869": "\u0120beaut", "1870": "\u00bc\u00eb", "1871": "\u0120matter", "1872": "\u0120son", "1873": "\u0120New", "1874": "\u0120result", "1875": "ides", "1876": "che", "1877": "\u0120fut", "1878": "ps", "1879": "\u0120focus", "1880": "\u0120interesting", "1881": "\u00e5\u00a5", "1882": "\u0120ap", "1883": "\".", "1884": "\u0120create", "1885": "\u00d0\u00be\u00d1\u0123", "1886": "\u0120press", "1887": "ross", "1888": "\u0120pick", "1889": "line", "1890": "\u0120took", "1891": "\u0120May", "1892": "row", "1893": "\u0120ich", "1894": "\u013a\u00eb", "1895": "\u0120ref", "1896": "\u0120mor", "1897": "ract", "1898": "arent", "1899": "AR", "1900": "\u0120exact", "1901": "\u0120space", "1902": "work", "1903": "\u00d0\u00bd\u00d0\u00b8", "1904": "\u0120bir", "1905": "\u0120dev", "1906": "\u00d0\u00b3", "1907": "\u0120told", "1908": "\u0120public", "1909": "cially", "1910": "\u0120view", "1911": "\u0120Hey", "1912": "med", "1913": "llo", "1914": "cc", "1915": "\u0120fac", "1916": "\u0120couple", "1917": "\u0120heart", "1918": "ler", "1919": "\u0120ready", "1920": "\u0120almost", "1921": "aring", "1922": "\u0120half", "1923": "\u0120Me", "1924": "avor", "1925": "ique", "1926": "\u0120charac", "1927": "\u0120pract", "1928": "ON", "1929": "ane", "1930": "\u0120il", "1931": "\u00d0\u00bd\u00d0\u00b0", "1932": "\u0120vi", "1933": "lish", "1934": "head", "1935": "\u0120least", "1936": "\u0120basically", "1937": "ased", "1938": "right", "1939": "\u0120yet", "1940": "\u0120taking", "1941": "\u0120country", "1942": "\u0120win", "1943": "\u0120isn", "1944": "\u0120possible", "1945": "\u0120cam", "1946": "\u0120incre", "1947": "\u0120pat", "1948": "\u0120wanna", "1949": "\u0120consider", "1950": "\u0120abs", "1951": "\u0120within", "1952": "\u0120human", "1953": "\u0120thinking", "1954": "\u0120oh", "1955": "\u00a1\u013e", "1956": "\u0120qui", "1957": "ases", "1958": "\u01200", "1959": "itely", "1960": "\u00e4\u00b8\u012f", "1961": "\u0120kill", "1962": "\u0120mil", "1963": "\u0120invest", "1964": "ister", "1965": "\u0120suc", "1966": "ional", "1967": "elf", "1968": "\u0120whether", "1969": "\u0120control", "1970": "\u0120against", "1971": "ots", "1972": "\u00eb\u012d\u012a\u00eb\u012d\u00a4", "1973": "ior", "1974": "\u0120present", "1975": "\u0120\u00d8\u00a7", "1976": "\u0120watching", "1977": "ube", "1978": "erv", "1979": "\u0120nicht", "1980": "\u0120govern", "1981": "\u0120These", "1982": "\u0120:", "1983": "uit", "1984": "ugh", "1985": "\u0120works", "1986": "oo", "1987": "\u0120wir", "1988": "\u0120air", "1989": "\u0120Te", "1990": "\u00d0\u00b0\u00d0\u00b7", "1991": "ision", "1992": "where", "1993": "\u0120tot", "1994": "joy", "1995": "\u00ec\u012d", "1996": "\u0120vol", "1997": "\u0120\u00d0\u00b5", "1998": "\u0120close", "1999": "\u0120Ad", "2000": "\u00d1\u012b", "2001": "ined", "2002": "\u0120una", "2003": "\u0120\u00ea\u00b7\u00b8\u00eb", "2004": "\u00b0\u00eb", "2005": "orry", "2006": "\u0120bro", "2007": "\u0120film", "2008": "ift", "2009": "20", "2010": "\u0120type", "2011": "\u0120happened", "2012": "\u0120Am", "2013": "\u0120girl", "2014": "\u0120Are", "2015": "wards", "2016": "\u0120pour", "2017": "\u0120color", "2018": "elt", "2019": "\u00d0\u00b0\u00d1\u0123", "2020": "\u0120sense", "2021": "lex", "2022": "\u0120With", "2023": "uss", "2024": "rib", "2025": "\u0120rese", "2026": "\u0120norm", "2027": "\u0120future", "2028": "\u0120deal", "2029": "ending", "2030": "ey", "2031": "\u0120x", "2032": "ero", "2033": "\u0120Cl", "2034": "uk", "2035": "\u0120whatever", "2036": "selves", "2037": "\u0120young", "2038": "\u00ec\u012c", "2039": "\u0120Mar", "2040": "\u0120Christ", "2041": "\u0120guess", "2042": "\u0120perform", "2043": "\u0120ener", "2044": "ron", "2045": "\u0120hit", "2046": "\u0120wond", "2047": "\u0120direct", "2048": "\u0120Every", "2049": "\u0120often", "2050": "\u0120fa", "2051": "\u0120along", "2052": "\u0120click", "2053": "\u0120Look", "2054": "\u0120situ", "2055": "\u0120happy", "2056": "ead", "2057": "\u0120ago", "2058": "\u0120enc", "2059": "\u0120myself", "2060": "\u0120cover", "2061": "\u00d0\u00be\u00d0\u00b1", "2062": "\u0120mid", "2063": "\u0120cost", "2064": "\u0120ten", "2065": "\u0120Sch", "2066": "\u0120expect", "2067": "\u0120wasn", "2068": "\u0120strong", "2069": "iful", "2070": "\u0120opportun", "2071": "inal", "2072": "yle", "2073": "\u0120share", "2074": "\u0120true", "2075": "\u0120appro", "2076": "\u0120chall", "2077": "\u0120minutes", "2078": "\u0120chann", "2079": "\u0120\u00eb\u0124", "2080": "\u00ce\u00b5", "2081": "li", "2082": "\u0120mess", "2083": "ories", "2084": "pecially", "2085": "\u0120wrong", "2086": "\u0120yes", "2087": "\u0120\u00ec\u0139", "2088": "iron", "2089": "\u0120allow", "2090": "\u0120subs", "2091": "\u0120fore", "2092": "\u0120fight", "2093": "\u0120social", "2094": "\u0120cra", "2095": "ana", "2096": "\u0120aff", "2097": "\u0120ess", "2098": "\u0120ways", "2099": "\u0120short", "2100": "\u0120fall", "2101": "\u0120law", "2102": "\u0120Who", "2103": "\u0120enjoy", "2104": "\u0120cal", "2105": "\u0120access", "2106": "fe", "2107": "\u0120non", "2108": "\u0120across", "2109": "ery", "2110": "viously", "2111": "\u0120Ex", "2112": "ided", "2113": "\u0120link", "2114": "\u0120Pr", "2115": "\u0120terms", "2116": "aces", "2117": "\u0120land", "2118": "azing", "2119": "\u012015", "2120": "\u0120mult", "2121": "\u0120special", "2122": "\u00e5\u0122", "2123": "iving", "2124": "\u00ec\u013f\u0122", "2125": "\u0120typ", "2126": "\u0120ste", "2127": "\u0120\u00c4", "2128": "\u0120forward", "2129": "\u00e5\u0131", "2130": "\u0120fre", "2131": "\u00e5\u00a5\u00bd", "2132": "\u0120research", "2133": "\u00e0\u00af\u012f", "2134": "\u00d0\u00b0\u00d1\u0124", "2135": "\u0120main", "2136": "\u0120record", "2137": "\u0120hu", "2138": "\u0120definitely", "2139": "\u0120either", "2140": "\u0120listen", "2141": "\u0120key", "2142": "\u0120market", "2143": "\u0120\u00d1\u0129\u00d1\u0124\u00d0\u00be", "2144": "ization", "2145": "\u0120videos", "2146": "\u0120guy", "2147": "\u0120fig", "2148": "\u0120stra", "2149": "\u0120Pl", "2150": "ully", "2151": "amos", "2152": "\u0120mention", "2153": "\u0120song", "2154": "\u0120intern", "2155": "ral", "2156": "urs", "2157": "\u0120hon", "2158": "\u0120value", "2159": "\u0120bar", "2160": "cle", "2161": "\u00d0\u00be\u00d0\u00b6", "2162": "\u00c4\u0129", "2163": "\u013e\u00eb", "2164": "\u0120zu", "2165": "\u00d0\u00b8\u00d0\u00bc", "2166": "\u00e4\u00bd\u0142", "2167": "\u0120single", "2168": "\u0120auch", "2169": "cuss", "2170": "\u0120gets", "2171": "\u0120sometimes", "2172": "\u00e5\u00be", "2173": "amb", "2174": "mm", "2175": "cing", "2176": "\u0120perfect", "2177": "\u0120Bl", "2178": "outh", "2179": "\u00ec\u0142", "2180": "\u0120sci", "2181": "par", "2182": "\u0120red", "2183": "\u0120post", "2184": "\u0120mot", "2185": "\u0120elect", "2186": "\u0120Eu", "2187": "itive", "2188": "\u0120Some", "2189": "\u0120descri", "2190": "\u0120current", "2191": "\u00c3\u00a9s", "2192": "\u0120tre", "2193": "\u0120En", "2194": "\u0120mit", "2195": "EN", "2196": "\u012a\u00eb", "2197": "ium", "2198": "\u0120heard", "2199": "\u0120simple", "2200": "lar", "2201": "\u0120everybody", "2202": "ilar", "2203": "\u0120needs", "2204": "\u0120diffic", "2205": "\u0120Good", "2206": "ument", "2207": "cent", "2208": "\u0120oper", "2209": "\u00d0\u00b0\u00d1\u0124\u00d1\u012e", "2210": "ety", "2211": "\u0120black", "2212": "\u0120given", "2213": "ones", "2214": "\u0120wel", "2215": "\u00e9\u0122", "2216": "\u0120\u00ec\u0137\u0126", "2217": "\u012030", "2218": "AT", "2219": "\u0120stat", "2220": "ouch", "2221": "\u0120Mr", "2222": "\u00d0\u00b0\u00d1\u0122", "2223": "\u0120sho", "2224": "\u0120cond", "2225": "\u00d7\u0136", "2226": "my", "2227": "\u0120children", "2228": "\u0120eu", "2229": "\u00d0\u00b5\u00d0\u00b4", "2230": "\u00ec\u0137\u0126", "2231": "tern", "2232": "\u0120uh", "2233": "\u0120har", "2234": "\u0120prom", "2235": "\u0120pull", "2236": "rew", "2237": "\u0120company", "2238": "\u0120beautiful", "2239": "ustom", "2240": "\u00ed\u0137\u013a", "2241": "\u00d0\u00ba\u00d0\u00b8", "2242": "\u0120stre", "2243": "\u0120amazing", "2244": "ries", "2245": "\u0120success", "2246": "\u0120mach", "2247": "not", "2248": "\u0120discuss", "2249": "\u0120nat", "2250": "\u00a6\u00ac", "2251": "\u0120une", "2252": "\u0120difficult", "2253": "\u0120ris", "2254": "\u00ce\u00bd", "2255": "\u0120camp", "2256": "\u0120buy", "2257": "\u00e4\u00b8\u0122", "2258": "\u0120mag", "2259": "po", "2260": "\u0120Your", "2261": "\u0120behind", "2262": "ica", "2263": "\u00c4\u00b1n", "2264": "\u0120OK", "2265": "\u0120lang", "2266": "\u0120women", "2267": "\u0120env", "2268": "\u0120rece", "2269": "\u0120channel", "2270": "ially", "2271": "ule", "2272": "\u012012", "2273": "thers", "2274": "\u0120bott", "2275": "\u0120report", "2276": "ently", "2277": "fully", "2278": "The", "2279": "\u0120sent", "2280": "\u0120event", "2281": "\u0120energy", "2282": "lt", "2283": "\u0120words", "2284": "arr", "2285": "dle", "2286": "\u0120ahead", "2287": "ards", "2288": "\u00d8\u00b1", "2289": "\u00e4\u00ba\u0128", "2290": "\u0120tool", "2291": "conom", "2292": "\u00d0\u00b5\u00d1\u0123", "2293": "\u0120exactly", "2294": "\u0120favor", "2295": "\u0120low", "2296": "\u0120proper", "2297": "\u0120\u00ec\u0140\u012a", "2298": "\u0120!", "2299": "\u0120relations", "2300": "\u0120mas", "2301": "\u0120kids", "2302": "\u0120entire", "2303": "ude", "2304": "\u00d9\u0127", "2305": "\u0120Where", "2306": "\u0120ones", "2307": "\u0120city", "2308": "olut", "2309": "\u0120six", "2310": "ability", "2311": "\u00c3\u00b6r", "2312": "ili", "2313": "\u0120Es", "2314": "\u0120happens", "2315": "ains", "2316": "\u0120model", "2317": "\u0120pict", "2318": "\u0120especially", "2319": "\u0120100", "2320": "kt", "2321": "\u0120soon", "2322": "by", "2323": "rodu", "2324": "\u0120ann", "2325": "\u0120subscri", "2326": "\u0120Qu", "2327": "\u0120avail", "2328": "iment", "2329": "\u0120voc", "2330": "ka", "2331": "\u0120200", "2332": "aper", "2333": "\u0120Ind", "2334": "\u0120\u00ec\u00a7", "2335": "hor", "2336": "\u012f\u00b0", "2337": "jor", "2338": "\u00d0\u00b8\u00d0\u00bb", "2339": "\u0120squ", "2340": "AU", "2341": "arning", "2342": "\u0120\u00d0\u00b3", "2343": "IS", "2344": "\u0120\u00d0\u00bb", "2345": "\u00d0\u00b5\u00d0\u00b9", "2346": "yes", "2347": "\u00e5\u0127", "2348": "\u0120\u00d0\u0134", "2349": "\u0120orig", "2350": "\u00d0\u00be\u00d0\u00b3\u00d0\u00be", "2351": "\u0120asked", "2352": "ilt", "2353": "\u00d0\u00be\u00d0\u00b3", "2354": "\u0120continue", "2355": "\u0120\u00ec\u013a", "2356": "ram", "2357": "\u0120others", "2358": "ES", "2359": "ohn", "2360": "\u0120lay", "2361": "\u0120based", "2362": "\u0120pu", "2363": "\u0120appe", "2364": "\u0120lim", "2365": "\u0120prop", "2366": "\u0122\u00eb", "2367": "min", "2368": "\u0120hot", "2369": "\u0120La", "2370": "\u0120fast", "2371": "\u0120protect", "2372": "\u0120amount", "2373": "\u0120aqu", "2374": "\u0120fund", "2375": "\u0120custom", "2376": "\u0120cult", "2377": "\u0120hands", "2378": "\u0120haven", "2379": "\u0120aud", "2380": "\u0120outside", "2381": "\u0120After", "2382": "aps", "2383": "\u0120anim", "2384": "ploy", "2385": "\u0120hat", "2386": "\u0120First", "2387": "\u0120treat", "2388": "\u0120ep", "2389": "\u0120mater", "2390": "\u0120building", "2391": "\u0120\u00eb\u00b0", "2392": "\u00e5\u0132", "2393": "\u00ec\u0126\u013e", "2394": "za", "2395": "ughter", "2396": "\u0120Pe", "2397": "ney", "2398": "eter", "2399": "atic", "2400": "\u0120educ", "2401": "\u00ea\u00b8\u00b0", "2402": "\u0120mov", "2403": "\u0135\u00a4", "2404": "ama", "2405": "ration", "2406": "\u0120sn", "2407": "\u00d9\u012a", "2408": "\u0120sum", "2409": "\u0120phot", "2410": "\u0120\u00d0\u013f", "2411": "\u0120.", "2412": "\u00e6\u013e\u012b", "2413": "\u0120finish", "2414": "itting", "2415": "\u00e5\u00ae", "2416": "\u0120large", "2417": "\u0120\u00ec\u0138", "2418": "\u0120white", "2419": "ara", "2420": "\u0120mais", "2421": "\u0120Hi", "2422": "\u0120dam", "2423": "\u0120\u00d8\u00a7\u00d9\u0126", "2424": "\u0120box", "2425": "\u0120Hello", "2426": "\u0120sle", "2427": "\u0120opt", "2428": "ried", "2429": "\u00a5\u00bc", "2430": "\u0120activ", "2431": "\u0120n\u00c3\u00a3o", "2432": "\u0120Com", "2433": "\u0120playing", "2434": "Th", "2435": "\u0120available", "2436": "\u0120port", "2437": "\u00e5\u012a", "2438": "\u0120Ah", "2439": "\u0120las", "2440": "\u0120early", "2441": "\u0120wonder", "2442": "\u00b1\u00b0", "2443": "\u012018", "2444": "cul", "2445": "\u0120function", "2446": "\u0120morning", "2447": "lle", "2448": "ients", "2449": "ux", "2450": "\u0120cir", "2451": "itions", "2452": "\u0120deep", "2453": "\u0120polit", "2454": "yor", "2455": "mp", "2456": "aking", "2457": "\u012e\u00eb", "2458": "\u0120Man", "2459": "\u0120million", "2460": "\u0120/", "2461": "\u0120individ", "2462": "\u0120pan", "2463": "\u0120government", "2464": "\u0120write", "2465": "\u0120Tod", "2466": "ament", "2467": "\u0120\u00cf", "2468": "\u0120wind", "2469": "\u0120Eng", "2470": "chen", "2471": "Wh", "2472": "\u00ec\u013e", "2473": "\u0120ident", "2474": "\u00e3\u0123\u00a7", "2475": "vent", "2476": "urch", "2477": "\u0120hy", "2478": "\u0120ya", "2479": "\u0120trad", "2480": "\u0120relationship", "2481": "\u00c3\u00ba", "2482": "\u0120dou", "2483": "OR", "2484": "\u0120swe", "2485": "\u0120neg", "2486": "ination", "2487": "\u0120text", "2488": "ipp", "2489": "\u0120fine", "2490": "\u00c3\u00a1s", "2491": "\u0120Dr", "2492": "\u0120Come", "2493": "\u0120months", "2494": ",\"", "2495": "\u00d0\u00b5\u00d0\u00bd\u00d0\u00b8", "2496": "\u0120hours", "2497": "\u0120pod", "2498": "irt", "2499": "\u0120invol", "2500": "\u0120collect", "2501": "\u0120auf", "2502": "\u0120pa", "2503": "\u0120history", "2504": "mb", "2505": "ify", "2506": "\u0120?", "2507": "\u0120below", "2508": "asure", "2509": "aby", "2510": "\u0120langu", "2511": "\u0120ant", "2512": "\u0120comb", "2513": "ato", "2514": "\u0120exist", "2515": "\u0120\u00eb\u012d", "2516": "\u0120takes", "2517": "\u0120character", "2518": "aff", "2519": "\u0120field", "2520": "\u0120econom", "2521": "ief", "2522": "\u0120piece", "2523": "\u00e5\u013e", "2524": "\u0120reach", "2525": "\u0120\u00ea\u00b2", "2526": "ony", "2527": "\u0120material", "2528": "\u0120dig", "2529": "\u0120phys", "2530": "\u0120impro", "2531": "\u0120similar", "2532": "IC", "2533": "\u0120net", "2534": "yn", "2535": "\u0120position", "2536": "\u00c3\u0141", "2537": "\u0120bene", "2538": "read", "2539": "\u0120learning", "2540": "ume", "2541": "\u0120clean", "2542": "\u00d1\u0124\u00d0\u00be\u00d1\u0122", "2543": "\u0120cook", "2544": "\u0120seems", "2545": "\u0120ol", "2546": "\u0120US", "2547": "\u0120Jes", "2548": "\u0120\u00e0\u00ae", "2549": "ential", "2550": "iversity", "2551": "acy", "2552": "\u0120\u00d1\u0131", "2553": "olutely", "2554": "rect", "2555": "\u0120Please", "2556": "\u0120repres", "2557": "\u0120touch", "2558": "men", "2559": "\u0120\u00d0\u00b0", "2560": "i\u00c3\u00b3n", "2561": "\u0120Thanks", "2562": "\u0120ang", "2563": "\u0120major", "2564": "\u0120itself", "2565": "ills", "2566": "\",", "2567": "ians", "2568": "\u0120screen", "2569": "\u0120hor", "2570": "\u0120known", "2571": "\u0120environ", "2572": "\u0120final", "2573": "\u0120figure", "2574": "\u0120Tw", "2575": "\u0120eyes", "2576": "\u0120imag", "2577": "\u0120seeing", "2578": "\u0120hair", "2579": "rem", "2580": "\u0120applic", "2581": "ends", "2582": "put", "2583": "\u0120news", "2584": "\u0120completely", "2585": "ughs", "2586": "\u0120knew", "2587": "ified", "2588": "\u0120Je", "2589": "\u0120Did", "2590": "\u0120situation", "2591": "\u0120flo", "2592": "ms", "2593": "\u0120phone", "2594": "\u0120ball", "2595": "do", "2596": "\u0120parent", "2597": "\u0120sorry", "2598": "ury", "2599": "\u00d0\u00b8\u00d0\u00bd", "2600": "ips", "2601": "\u00d0\u00b0\u00d0\u00b4", "2602": "\u0120instead", "2603": "\u0120huge", "2604": "\u0120tu", "2605": "\u0120\u00e3\u0123", "2606": "\u0120Gr", "2607": "\u0120detail", "2608": "\u0120\u00d0\u0141", "2609": "\u0120individual", "2610": "\u0120fire", "2611": "\u0120clos", "2612": "\u0120wer", "2613": "une", "2614": "\u0120running", "2615": "\u0120convers", "2616": "\u0120recomm", "2617": "\u0120como", "2618": "\u0120somebody", "2619": "\u0120John", "2620": "\u0120\u00ec\u013f\u00b4", "2621": "\u0120Our", "2622": "ples", "2623": "\u0120Ph", "2624": "\u0120anal", "2625": "\u012050", "2626": "\u0120offer", "2627": "\u0120<", "2628": "itional", "2629": "gest", "2630": "\u0120vous", "2631": "let", "2632": "icy", "2633": "\u0120feeling", "2634": "LE", "2635": "ros", "2636": "\u0120third", "2637": "\u00d0\u00be\u00d0\u00ba", "2638": "\u0120series", "2639": "\u0120Any", "2640": "ised", "2641": "old", "2642": "\u0120draw", "2643": "\u0120service", "2644": "\u0120cannot", "2645": "bal", "2646": "\u00e3\u0123\u0128", "2647": "\u0120living", "2648": "\u00c4\u00b1m", "2649": "\u0120difference", "2650": "\u0120opportunity", "2651": "\u0120near", "2652": "orth", "2653": "ken", "2654": "\u0120local", "2655": "\u00d8\u00aa", "2656": "\u0120Con", "2657": "\u0120object", "2658": "\u0120dass", "2659": "\u00e3\u0123\u013b", "2660": "\u0132\u00d7", "2661": "\u0120quickly", "2662": "raph", "2663": "\u0120issues", "2664": "\u00e9\u0122\u013b", "2665": "\u0120American", "2666": "\u0120prep", "2667": "ences", "2668": "\u0120profess", "2669": "lling", "2670": "of", "2671": "\u0120foot", "2672": "bre", "2673": "\u0120usually", "2674": "\u0120general", "2675": "da", "2676": "ances", "2677": "\u0120dest", "2678": "\u0120occ", "2679": "\u0120members", "2680": "\u0120dans", "2681": "\u0120equal", "2682": "zt", "2683": "\u0120becom", "2684": "\u0120moving", "2685": "\u0120specific", "2686": "\u00c3\u0143a", "2687": "\u0120fur", "2688": "\u0120necess", "2689": "\u0120common", "2690": "\u0120attack", "2691": "\u0120\u00d1\u012f\u00d1\u0124\u00d0\u00be", "2692": "\u0120Today", "2693": "\u0120uns", "2694": "\u0120Gu", "2695": "iod", "2696": "\u0120account", "2697": "\u0120grand", "2698": "\u0120self", "2699": "\u0120El", "2700": "\u0120tast", "2701": "\u0120content", "2702": "\u0120cu", "2703": "\u0126\u00eb", "2704": "\u0120Maybe", "2705": "\u0120Jesus", "2706": "ores", "2707": "port", "2708": "\u00a9\u00b4", "2709": "\u0120gives", "2710": "\u0120normal", "2711": "\u00d1\u0122\u00d1\u0125", "2712": "\u0120impact", "2713": "\u00c3\u00a4r", "2714": "\u0120dies", "2715": "\u0120lab", "2716": "sh", "2717": "ios", "2718": "\u0120Pres", "2719": "\u0120Und", "2720": "\u0120Of", "2721": "\u0120finally", "2722": "\u0120doll", "2723": "\u0120voc\u00c3\u00aa", "2724": "ply", "2725": "\u0120Ag", "2726": "\u0120taken", "2727": "\u0120ground", "2728": "fort", "2729": "\u0120gave", "2730": "\u0120Inst", "2731": "\u0120lost", "2732": "\u0120worked", "2733": "\u0120liter", "2734": "\u0120issue", "2735": "\u0120indust", "2736": "\u0120return", "2737": "\u0120happening", "2738": "\u0120wants", "2739": "\u00d0\u00b8\u00d0\u00b2", "2740": "\u0120problems", "2741": "\u0120Car", "2742": "\u013f\u00bc", "2743": "\u0120Also", "2744": "\u0120size", "2745": "\u0120obviously", "2746": "\u0120Su", "2747": "\u0120Sc", "2748": "\u0120recommend", "2749": "ources", "2750": "astic", "2751": "....", "2752": "\u0120mi", "2753": "lier", "2754": "\u0120Even", "2755": "cia", "2756": "\u0120hur", "2757": "va", "2758": "\u0120mass", "2759": "\u0120wouldn", "2760": "unt", "2761": "cks", "2762": "\u0120felt", "2763": "osp", "2764": "light", "2765": "\u00d0\u00be\u00d0\u00bb\u00d1\u012e", "2766": "nie", "2767": "\u0120bottom", "2768": "\u0120\u00d0\u00b1\u00d1\u012d", "2769": "ored", "2770": "ison", "2771": "\u0120grad", "2772": "\u0120uma", "2773": "\u0120va", "2774": "\u0120\u00ec\u0124", "2775": "ression", "2776": "ulation", "2777": "ID", "2778": "idence", "2779": "\u0120bur", "2780": "\u0120gone", "2781": "lu", "2782": "\u00ec\u0138\u00b4\u00ec", "2783": "\u0120redu", "2784": "\u0120ja", "2785": "\u00ec\u013f\u013a", "2786": "ita", "2787": "\u0120soft", "2788": "\u0120\u00c3\u00a7a", "2789": "ico", "2790": "eral", "2791": "\u00c3\u00b1", "2792": "af", "2793": "\u0120points", "2794": "gu", "2795": "\u0120d\u00c3\u00a9", "2796": "apt", "2797": "ax", "2798": "\u0120Alright", "2799": "\u0120camera", "2800": "\u0120ach", "2801": "\u0120\u00d0\u00bf\u00d0\u00be", "2802": "\u0120sever", "2803": "50", "2804": "\u0120sie", "2805": "\u00cf\u0123", "2806": "\u0120mal", "2807": "\u0120comput", "2808": "\u0120middle", "2809": "\u0120couldn", "2810": "ming", "2811": "\u0120\u00ec\u012d", "2812": "\u0120His", "2813": "\u0120games", "2814": "\u0120introdu", "2815": "\u0120cell", "2816": "por", "2817": "\u0120sleep", "2818": "\u0120\u00eb\u00b3", "2819": "iding", "2820": "\u0120ou", "2821": "\u0120deg", "2822": "\u0120drink", "2823": "\u0120environment", "2824": "\u0120United", "2825": "\u0120talked", "2826": "\u0120choose", "2827": "\u0120jour", "2828": "ege", "2829": "\u0120Min", "2830": "\u0120inte", "2831": "\u0120rather", "2832": "\u0120offic", "2833": "\u00d0\u00ba\u00d0\u00b0", "2834": "aching", "2835": "\u0120mentioned", "2836": "\u0120fill", "2837": "\u0120track", "2838": "\u0120nie", "2839": "\u0120ut", "2840": "\u0120\u00d0\u00b2\u00d1\u012d", "2841": "ibility", "2842": "\u0120vac", "2843": "\u0120rad", "2844": "\u0120pack", "2845": "\u0120send", "2846": "\u0120Das", "2847": "\u0120Ab", "2848": "\u0120engine", "2849": "\u00e3\u0123\u0139", "2850": "\u0120compet", "2851": "\u00c3\u00b4", "2852": "\u0120\u00d0\u00b2\u00d1\u0123", "2853": "\u0120door", "2854": "\u0120longer", "2855": "\u00e5\u00b0\u012f", "2856": "\u0120language", "2857": "\u0120extra", "2858": "play", "2859": "\u0120webs", "2860": "umb", "2861": "room", "2862": "\u00e7\u013e", "2863": "\u0120beginning", "2864": "\u0120refer", "2865": "AM", "2866": "nen", "2867": "igher", "2868": "face", "2869": "erc", "2870": "\u0120forget", "2871": "\u0120comment", "2872": "\u00d0\u00b5\u00d0\u00ba", "2873": "\u00d0\u00bb\u00d1\u0131", "2874": "ror", "2875": "\u00c5\u00bce", "2876": "\u0120Ge", "2877": "\u0120dark", "2878": "\u0120anyone", "2879": "ante", "2880": "ges", "2881": "\u00ec\u012c\u00b5", "2882": "\u00d1\u0133", "2883": "bed", "2884": "je", "2885": "ructure", "2886": "\u0120prim", "2887": "ida", "2888": "\u00e8\u00a6", "2889": "\u00e3\u0123\u00be", "2890": "\u0120mix", "2891": "\u0120starting", "2892": "\u0120\u00ec\u013f\u00b4\u00eb", "2893": "\u0120provide", "2894": "action", "2895": "\u0120mother", "2896": "\u0120period", "2897": "\u0120stick", "2898": "\u0120YouT", "2899": "\u0120technology", "2900": "\u00ea\u00b9", "2901": "\u0120bed", "2902": "\u0120giving", "2903": "\u0120explain", "2904": "zen", "2905": "imate", "2906": "\u0120represent", "2907": "load", "2908": "\u0120However", "2909": "\u0120lives", "2910": "uth", "2911": "irit", "2912": "ogn", "2913": "\u0120lik", "2914": "\u0120respons", "2915": "\u0120priv", "2916": "\u0120tom", "2917": "\u00c3\u00a7\u00c3\u00a3o", "2918": "iam", "2919": "\u0120excited", "2920": "\u0120card", "2921": "ground", "2922": "\u0120\u00d7\u0136", "2923": "\u0120sens", "2924": "\u0120teach", "2925": "ido", "2926": "hod", "2927": "\u0120epis", "2928": "\u0120welcome", "2929": "\u0120wall", "2930": "\u00e4\u00b9", "2931": "\u0120chance", "2932": "hen", "2933": "\u0120\u00d0\u00a1", "2934": "\u0120\u00c4\u0133", "2935": "\u0120simply", "2936": "\u0120\u00d1\u0124\u00d0\u00b0\u00d0\u00ba", "2937": "ring", "2938": "ja", "2939": "book", "2940": "\u0120several", "2941": "ste", "2942": "\u0120created", "2943": "\u0120\u00d0\u00be\u00d1\u0124", "2944": "\u0120push", "2945": "==", "2946": "\u0120higher", "2947": "uf", "2948": "ource", "2949": "oke", "2950": "\u0120online", "2951": "\u0120rele", "2952": "\u0120ton", "2953": "ensive", "2954": "\u0120favorite", "2955": "\u00d1\u0125\u00d0\u00b4", "2956": "\u0120looked", "2957": "\u0120von", "2958": "\u00e2\u0122\u0136", "2959": "\u0120f\u00c3\u00bcr", "2960": "\u0120button", "2961": "\u0120bill", "2962": "\u0120changes", "2963": "!\"", "2964": "\u0120slow", "2965": "ables", "2966": "\u0120death", "2967": "ands", "2968": "ateg", "2969": "\u0120themselves", "2970": "\u00e3\u0123\u00a3", "2971": "\u0120cop", "2972": "\u00e3\u0123\u00ae", "2973": "\u0120personal", "2974": "ughing", "2975": "\u012011", "2976": "gar", "2977": "ades", "2978": "\u0120needed", "2979": "\u0120study", "2980": "aged", "2981": "\u00d1\u0123\u00d1\u0124\u00d0\u00b2", "2982": "ino", "2983": "\u0120disc", "2984": "ki", "2985": "\u0120address", "2986": "\u00d7\u00a8", "2987": "itten", "2988": "esome", "2989": "\u0120\u00d0\u00b6", "2990": "\u00a4\u00eb", "2991": "ura", "2992": "\u0120mu", "2993": "\u0120continu", "2994": "for", "2995": "\u0120match", "2996": "\u00e3\u0123\u00a6", "2997": "\u0120straight", "2998": "\u0132\u00eb", "2999": "ners", "3000": "\u0120dog", "3001": "\u0120deb", "3002": "\u0120CO", "3003": "\u0120os", "3004": "ged", "3005": "came", "3006": "\u0120correct", "3007": "ette", "3008": "\u0120See", "3009": "\u0120including", "3010": "\u0120Euro", "3011": "ester", "3012": "\u0120jump", "3013": "\u0120Which", "3014": "\u0120\u00d0\u00ba\u00d0\u00b0\u00d0\u00ba", "3015": "son", "3016": "ya", "3017": "ING", "3018": "\u0120eine", "3019": "osh", "3020": "ency", "3021": "\u0120media", "3022": "\u0120subscribe", "3023": "\u00e9\u0124", "3024": "\u0120prin", "3025": "\u0120hab", "3026": "\u0120Per", "3027": "\u0120Was", "3028": "\u0120page", "3029": "itor", "3030": "\u0120towards", "3031": "\u0120tried", "3032": "enge", "3033": "artment", "3034": "\u0120vari", "3035": "\u0120paper", "3036": "\u0120picture", "3037": "\u0120version", "3038": "\u0120brought", "3039": "ware", "3040": "\u0120States", "3041": "\u0120sich", "3042": "ledge", "3043": "\u0120percent", "3044": "\u0120god", "3045": "ec", "3046": "\u0120Comm", "3047": "\u0120decided", "3048": "\u0120select", "3049": "\u00ed\u0137\u013e", "3050": ").", "3051": "urity", "3052": "\u0120further", "3053": "\u0120comments", "3054": "lement", "3055": "\u0120dream", "3056": "\u0120center", "3057": "mi", "3058": "\u0120cas", "3059": "\u0120woman", "3060": "\u0120road", "3061": "\u0120fail", "3062": "\u0120became", "3063": "lus", "3064": "ilities", "3065": "\u00e3\u0123\u00af", "3066": "\u0120Co", "3067": "\u0120manage", "3068": "\u0120recogn", "3069": "\u0120action", "3070": "\u0120benef", "3071": "\u0120earlier", "3072": "\u00d7\u013e", "3073": "\u0120speed", "3074": "\u0120ment", "3075": "\u0120soci", "3076": "\u0120shoot", "3077": "ui", "3078": "\u0120\u00c3\u00a4", "3079": "\u0120apply", "3080": "vo", "3081": "xim", "3082": "\u0120cause", "3083": "\u0120surpr", "3084": "\u0120haben", "3085": "DI", "3086": "\u0120father", "3087": "\u0120Next", "3088": "\u0120YouTube", "3089": "\u0120code", "3090": "\u0120role", "3091": "gress", "3092": "\u0120green", "3093": "ett", "3094": "\u0120built", "3095": "\u0120flow", "3096": "\u0120base", "3097": "\u0120training", "3098": "\u0120round", "3099": "\u0120Will", "3100": "\u0120path", "3101": "\u0120Ro", "3102": "\u0120interested", "3103": "\u00ec\u0138\u00b4", "3104": "\u0120respect", "3105": "\u0120changed", "3106": "ission", "3107": "\u0120student", "3108": "ograph", "3109": "\u0120approach", "3110": "\u0120shows", "3111": "\u00e5\u00b0\u00b1", "3112": "\u0120tar", "3113": "\u0120crit", "3114": "\u0120glo", "3115": "\u00ec\u012c\u00b5\u00eb\u012d\u012a\u00eb\u012d\u00a4", "3116": "\u0120dead", "3117": "\u0120President", "3118": "\u0120thous", "3119": "\u0120bal", "3120": "ster", "3121": "ex", "3122": "\u0120absolutely", "3123": "\u0120mic", "3124": "\u0120practice", "3125": "\u0120quality", "3126": "\u0120lower", "3127": "ogle", "3128": "\u0120separ", "3129": "ball", "3130": "medi", "3131": "\u0120review", "3132": "\u0120App", "3133": "\u0120ok", "3134": "\u00e2\u0122\u012d", "3135": "\u0120experien", "3136": "\u0120concern", "3137": "entially", "3138": "more", "3139": "\u0120Jo", "3140": "apan", "3141": "\u0120Ich", "3142": "istic", "3143": "\u0120fair", "3144": "\u0120website", "3145": "ires", "3146": "\u0120By", "3147": "\u0120travel", "3148": "\u0120risk", "3149": "\u0120mir", "3150": "\u0120board", "3151": "\u0120sen", "3152": "\u0120parents", "3153": "\u0120Wow", "3154": "\u0120feed", "3155": "\u0120save", "3156": "\u0120serious", "3157": "\u0120init", "3158": "EL", "3159": "undred", "3160": "AS", "3161": "\u0120van", "3162": "orrow", "3163": "\u0120worth", "3164": "\u0120search", "3165": "\u012016", "3166": "\u0120parts", "3167": "\u00d1\u0123\u00d1\u0124\u00d1\u012e", "3168": "\u0120compan", "3169": "\u0120movie", "3170": "\u0120method", "3171": "\u0120ill", "3172": "\u0120wish", "3173": "dy", "3174": "\u0120item", "3175": "\u0120minus", "3176": "anger", "3177": "\u0120voice", "3178": "\u0120skin", "3179": "\u0120areas", "3180": "\u0120eight", "3181": "\u0120obs", "3182": "\u0120,", "3183": "\u00d0\u00b0\u00d0\u00b9", "3184": "\u0120oil", "3185": "\u0120cy", "3186": "\u0120baby", "3187": "sy", "3188": "\u0120employ", "3189": "\u0120Ke", "3190": "\u0120places", "3191": "\u0120fix", "3192": "\u0120est\u00c3\u00a1", "3193": "\u00e3\u0123\u00a8", "3194": "ived", "3195": "\u0120lots", "3196": "\u0120season", "3197": "unk", "3198": "alt", "3199": "\u0120table", "3200": "\u0120\u00d0\u00a2", "3201": "\u00c3\u00a2", "3202": "\u0120attention", "3203": "\u00e3\u0123\u00aa", "3204": "\u0120Her", "3205": "\u0120age", "3206": "\u0120pra", "3207": "back", "3208": "cil", "3209": "\u0120network", "3210": "rit", "3211": "\u0120doc", "3212": "\u0120aren", "3213": "igen", "3214": "\u0120\u00eb\u0126", "3215": "\u00d8\u00af", "3216": "ender", "3217": "\u0120total", "3218": "\u0120price", "3219": "\u0120crazy", "3220": "\u00ec\u013c", "3221": "iqu", "3222": "though", "3223": "You", "3224": "\u00d9\u0129", "3225": "\u00e3\u0124\u0135", "3226": "\u00cf\u0127", "3227": "\u0120sat", "3228": "\u0120bi", "3229": "\u0120Die", "3230": "\u0120sha", "3231": "\u0120thanks", "3232": "uh", "3233": "\u0120stage", "3234": "\u00d0\u00b0\u00d0\u00b6", "3235": "\u0120Fl", "3236": "\u0120leav", "3237": "\u0120boy", "3238": "\u0120af", "3239": "\u00c3\u00b6n", "3240": "\u0120Get", "3241": "\u0120accept", "3242": "\u0120enter", "3243": "\u0120tur", "3244": "\u0120si\u00c4\u013b", "3245": "\u0120honest", "3246": "\u00e3\u0122\u012e", "3247": "\u0120sam", "3248": "\u0120repl", "3249": "ging", "3250": "\u0120development", "3251": "\u0120Act", "3252": "ora", "3253": "\u00e3\u0122\u012f", "3254": "\u00e4\u00be", "3255": "\u0120knows", "3256": "\u0120image", "3257": "\u0120Lord", "3258": "\u00d0\u00b8\u00d1\u0124\u00d1\u012e", "3259": "\u0120weeks", "3260": "\u0120sex", "3261": "\u0136\u00eb", "3262": "\u0120hundred", "3263": "\u0120sounds", "3264": "\u0120learned", "3265": "\u0120bud", "3266": "\u0120\u00d1\u0123\u00d1\u0124", "3267": "\u0120incred", "3268": "\u00e2\u013b", "3269": "\u0120nos", "3270": "\u0120drop", "3271": "\u0120ben", "3272": "\u0120\u00d0\u013a", "3273": "\u0120safe", "3274": "ata", "3275": "\u0120fuck", "3276": "soci", "3277": "\u0120dan", "3278": "\u0120cross", "3279": "10", "3280": "mo", "3281": "vert", "3282": "\u012017", "3283": "zie", "3284": "\u00e5\u0137", "3285": "\u0120dom", "3286": "\u0120Bo", "3287": "\u0120setting", "3288": "\u0120involved", "3289": "arily", "3290": "\u0120sind", "3291": "\u0120sus", "3292": "\u0120worry", "3293": "eth", "3294": "\u00ea\u00b9\u012e", "3295": "\u0120sun", "3296": "\u0120hier", "3297": "\u0120certainly", "3298": "oul", "3299": "orts", "3300": "\u0120Er", "3301": "\u0120Um", "3302": "\u0120caus", "3303": "\u0120natural", "3304": "\u0120\u00c3\u00bc", "3305": "\u0120cry", "3306": "\u0120Sec", "3307": "\u0120som", "3308": "\u00e6\u00b2", "3309": "\u0120education", "3310": "\u00d0\u00b0\u00d0\u00b5\u00d1\u0124", "3311": "\u0120multip", "3312": "\u0120alone", "3313": "\u0120eye", "3314": "\u0120rate", "3315": "\u0120Europe", "3316": "\u00e8\u00bf", "3317": "mon", "3318": "\u0120fit", "3319": "izing", "3320": "pped", "3321": "\u0120pressure", "3322": "the", "3323": "\u00d0\u00b8\u00d1\u0123", "3324": "ites", "3325": "\u0120Af", "3326": "reci", "3327": "attle", "3328": "\u0120services", "3329": "\u0120Google", "3330": "\u00e9\u0123", "3331": "\u0120cases", "3332": "\u0120drive", "3333": "\u0120challeng", "3334": "uz", "3335": "\u0120Mo", "3336": "\u00ec\u013e\u00bc\u00eb", "3337": "val", "3338": "\u00e5\u0122\u012d", "3339": "\u0120fol", "3340": "\u0120\u00ec\u00a2", "3341": "ffic", "3342": "\u0120ra", "3343": "\u0120sin", "3344": "\u0120blue", "3345": "\u0120affect", "3346": "\u0120mis", "3347": "\u0120shot", "3348": "\u0120\u00d0\u00be\u00d0\u00b1", "3349": "asing", "3350": "\u0120signific", "3351": "\u0120Che", "3352": "\u0120\u00ea\u00b3", "3353": "\u0120positive", "3354": "\u00ec\u00a3", "3355": "\u0120wie", "3356": "\u012040", "3357": "ording", "3358": "\u0120From", "3359": "\u00ea\u00b5", "3360": "\u0120brand", "3361": "\u0120trust", "3362": "\u0120ple", "3363": "\u0120communic", "3364": "\u0120weight", "3365": "\u0120asking", "3366": "\u0120tax", "3367": "\u0120Japan", "3368": "\u00e3\u0123\u0141", "3369": "\u0120\u00ed\u0137\u013a", "3370": "ops", "3371": "\u00cf\u0124", "3372": "\u0120putting", "3373": "\u0120roll", "3374": "\u0120America", "3375": "reg", "3376": "\u0140\u00d7", "3377": "atures", "3378": "ension", "3379": "\u0120Somet", "3380": "\u0120original", "3381": "ping", "3382": "\u0120\u00c5\u0141", "3383": "\u0120products", "3384": "\u00e3\u0125\u00bc", "3385": "\u0120contact", "3386": "olution", "3387": "\u0120goal", "3388": "\u0120pow", "3389": "\u0120performance", "3390": "\u0120blood", "3391": "ators", "3392": "\u0120Mich", "3393": "\u0120temper", "3394": "\u0120Dan", "3395": "\u0120sugg", "3396": "\u00d1\u0124\u00d0\u00b8", "3397": "\u0120imm", "3398": "\u0120office", "3399": "\u0120arri", "3400": "\u0120comfort", "3401": "\u0120\u00d0\u0136", "3402": "\u0120suggest", "3403": "\u0120plat", "3404": "\u0124\u013a", "3405": "19", "3406": "\u0120om", "3407": "\u0120seven", "3408": "\u0120Cent", "3409": "ille", "3410": "\u0120concept", "3411": "\u0120bag", "3412": "\u00c3\u00bcn", "3413": "ively", "3414": "\u0120div", "3415": "mos", "3416": "\u00e6\u012b", "3417": "\u0120feels", "3418": "\u0120ir", "3419": "akes", "3420": "ley", "3421": "\u0120particip", "3422": "\u0120\u00d0\u013c", "3423": "fl", "3424": "just", "3425": "\u0120sil", "3426": "\u0120Pa", "3427": "AL", "3428": "\u0120gotta", "3429": "\u0120fan", "3430": "\u0120challenge", "3431": "\u0120companies", "3432": "\u0120People", "3433": "</", "3434": "\u00d0\u00be\u00d0\u00b7", "3435": "\u0120pen", "3436": "ising", "3437": "\u0120aus", "3438": "emic", "3439": "amente", "3440": "\u0120meeting", "3441": "\u0120visit", "3442": "\u0120supposed", "3443": "\u0120Once", "3444": "\u00d0\u00b4\u00d0\u00b0", "3445": "orld", "3446": "30", "3447": "US", "3448": "\u0120viol", "3449": "\u0120notice", "3450": "\u0120\u00d0\u0132", "3451": "han", "3452": "ped", "3453": "\u00ec\u013a", "3454": "hh", "3455": "\u0120trou", "3456": "\u0120minute", "3457": "\u0120Par", "3458": "ray", "3459": "\u0120tit", "3460": "\u0120upd", "3461": "\u0120block", "3462": "\u0120due", "3463": "aur", "3464": "\u0120force", "3465": "\u0120coun", "3466": "\u0120\u00e2\u0122\u0136", "3467": "\u0120types", "3468": "\u00eb\u00a7", "3469": "\u0120late", "3470": "\u0120improve", "3471": "\u0120\u00ec\u012a", "3472": "\u0120ave", "3473": "ules", "3474": "cl", "3475": "amed", "3476": "\u0120awesome", "3477": "\u0120Ok", "3478": "\u0120vot", "3479": "\u0120machine", "3480": "\u0120following", "3481": "\u0120measure", "3482": "aci\u00c3\u00b3n", "3483": "uel", "3484": "chan", "3485": "\u0120ability", "3486": "\u0120tout", "3487": "\u0120ideas", "3488": "\u0120increase", "3489": "\u0120ens", "3490": "\u0120\u00d1\u0127", "3491": "\u0120\u00eb\u00aa", "3492": "\u0120jest", "3493": "\u0120\u00d0\u013e", "3494": "\u0120truth", "3495": "hy", "3496": "\u0120spend", "3497": "\u0120science", "3498": "ete", "3499": "\u012014", "3500": "\u0120episode", "3501": "\u0120alg", "3502": "ended", "3503": "\u00e3\u0123\u0135", "3504": "ari", "3505": "lla", "3506": "\u0120fish", "3507": "\u0120throw", "3508": "mit", "3509": "\u00e5\u00b9", "3510": "\u0120circ", "3511": "\u0120Cal", "3512": "\u0120tour", "3513": "\u0120direction", "3514": "\u0120noch", "3515": "\u00d0\u00b5\u00d0\u00b2", "3516": "\u00c3\u00a9n", "3517": "\u0120countries", "3518": "\u0120industry", "3519": "iny", "3520": "icle", "3521": "\u0120feet", "3522": "It", "3523": "\u0120leaders", "3524": "etzt", "3525": "\u0120staff", "3526": "\u00e7\u0136", "3527": "\u0120purp", "3528": "ito", "3529": "?!", "3530": "\u0120Ja", "3531": "\u0120store", "3532": "etic", "3533": "\u0120China", "3534": "\u0120\u00eb\u0132", "3535": "\u0120University", "3536": "\u0120#", "3537": "\u0120decision", "3538": "\u0120achie", "3539": "\u0120actual", "3540": "uly", "3541": "\u0120section", "3542": "\u0120results", "3543": "\u0120star", "3544": "\u0120mist", "3545": "ibly", "3546": "\u0120dad", "3547": "\u0120numbers", "3548": "omb", "3549": "\u00e8\u00aa", "3550": "\u0120Spe", "3551": "\u0120mer", "3552": "\u012025", "3553": "\u0120autom", "3554": "\u0120cold", "3555": "\u00d8\u00a8", "3556": "\u0126\u013e", "3557": "ager", "3558": "\u0120TV", "3559": "\u0120Sie", "3560": "\u0120Have", "3561": "\u0120\u00c5\u00bce", "3562": "ugg", "3563": "ained", "3564": "\u0120upon", "3565": "\u0120log", "3566": "\u0120complete", "3567": "\u0120brain", "3568": "aging", "3569": "\u0120Mus", "3570": "over", "3571": "\u0120easier", "3572": "\u0120integr", "3573": "\u0120m\u00c3\u00a1s", "3574": "\u0120turned", "3575": "\u0120stri", "3576": "ival", "3577": "\u0120heav", "3578": "\u0120TH", "3579": "\u0120writing", "3580": "\u00d1\u0122\u00d0\u00b0", "3581": "\u00e5\u013e\u00a8", "3582": "\u00e5\u00a4\u00a7", "3583": "\u0120cla", "3584": "ding", "3585": "\u0120telling", "3586": "\u00d0\u00b8\u00d0\u00b4", "3587": "icated", "3588": "\u00e4\u00bb\u00a5", "3589": "acht", "3590": "\u00e3\u0123\u0124", "3591": "haps", "3592": "\u0120Ste", "3593": "\u0120resources", "3594": "\u0120dann", "3595": "\u0120party", "3596": "\u0120\u00cf\u0126", "3597": "\u0120saf", "3598": "ises", "3599": "tre", "3600": "oint", "3601": "\u0120knowledge", "3602": "\u0120anymore", "3603": "\u0120fly", "3604": "\u0120maint", "3605": "\u00d0\u00b8\u00d0\u00ba", "3606": "\u00e5\u0133", "3607": "\u0120sell", "3608": "laughs", "3609": "\u0120York", "3610": "\u0120bien", "3611": "\u0120od", "3612": "\u0120easily", "3613": "\u0120range", "3614": "\u0120option", "3615": "\u00d8\u00b9", "3616": "\u0120appreci", "3617": "ocr", "3618": "\u0120determ", "3619": "\u00d1\u0126", "3620": "\u0120meaning", "3621": "\u0120site", "3622": "\u0120disco", "3623": "verage", "3624": "\u0120lose", "3625": "\u0120install", "3626": "\u0120emot", "3627": "antly", "3628": "\u00c3\u00a4t", "3629": "\u0120tamb", "3630": "\u0120War", "3631": "\u0120Ho", "3632": "\u0120Gen", "3633": "emy", "3634": "\u00d0\u00b5\u00d0\u00b7", "3635": "\u0120Pol", "3636": "\u0120message", "3637": "\u0120note", "3638": "\u012e\u0122", "3639": "\u0120het", "3640": "\u0120immedi", "3641": "\u0120avo", "3642": "\u0120books", "3643": "\u0120becomes", "3644": "resh", "3645": "\u00c3\u00a8s", "3646": "asons", "3647": "\u0120himself", "3648": "uts", "3649": "\u0120ju", "3650": "\u0120aware", "3651": "\u0120require", "3652": "\u0120systems", "3653": "\u0120Har", "3654": "\u0120among", "3655": "\u0120hom", "3656": "\u0120breat", "3657": "\u0120weird", "3658": "\u0120\u00eb\u00b6", "3659": "\u00ce\u00bb", "3660": "\u00d8\u00a9", "3661": "iff", "3662": "oring", "3663": "\u0120platform", "3664": "\u0120Take", "3665": "\u0120helps", "3666": "utions", "3667": "\u0120forg", "3668": "\u0120luck", "3669": "\u0120English", "3670": "\u0120web", "3671": "\u0120negative", "3672": "\u0120tut", "3673": "\u0120above", "3674": "ngth", "3675": "\u0120\u00ea\u00b1\u00b0", "3676": "\u0120stories", "3677": "\u0120load", "3678": "\u0120background", "3679": "\u0120switch", "3680": "ga", "3681": "\u0120princi", "3682": "\u0120finan", "3683": "\u0120various", "3684": "\u0120l\u00c3\u0142", "3685": "\u0120kinds", "3686": "aining", "3687": "\u0120nature", "3688": "\u0120\u00d0\u0140", "3689": "cz", "3690": "\u0120pray", "3691": "\u0120gar", "3692": "irm", "3693": "\u0120&", "3694": "\u0120\u00ec\u0125", "3695": "ns", "3696": "\u0120Rep", "3697": "\u0120Fe", "3698": "\u0120rev", "3699": "rand", "3700": "\u0120likely", "3701": "\u0120understanding", "3702": "\u00c4\u00b1r", "3703": "\u00e3\u0123\u012d", "3704": "\u0120fal", "3705": "\u012013", "3706": "\u00d1\u0128\u00d0\u00b8", "3707": "\u0120sud", "3708": "\u0120brother", "3709": "\u0120plant", "3710": "\u0120throughout", "3711": "wise", "3712": "pre", "3713": "\u0120culture", "3714": "\u0120\u00d9\u0127", "3715": "\u0120wonderful", "3716": "\u0120ah", "3717": "pper", "3718": "\u0120sold", "3719": "\u0120starts", "3720": "\u0120written", "3721": "\u00ce\u00af", "3722": "ni", "3723": "\u0120\u00d7\u0136\u00d7", "3724": "\u0120Dav", "3725": "\u0120ult", "3726": "\u0120arm", "3727": "\u0120rock", "3728": "\u0120wear", "3729": "\u00eb\u012f\u00b0", "3730": "ano", "3731": "rag", "3732": "\u0120square", "3733": "\u00d0\u00b0\u00d0\u00bd\u00d0\u00b8", "3734": "cast", "3735": "lebr", "3736": "\u0120literally", "3737": "\u0120played", "3738": "\u0120heat", "3739": "onse", "3740": "rict", "3741": "\u0120insp", "3742": "ids", "3743": "\u0120popular", "3744": "\u00eb\u0131\u0126", "3745": "\u0120catch", "3746": "\u0120mount", "3747": "\u0120jud", "3748": "What", "3749": "\u00d0\u00b5\u00d0\u00b1", "3750": "RA", "3751": "aud", "3752": "\u00d0\u00ba\u00d0\u00be", "3753": "\u0120surface", "3754": "\u0120conv", "3755": "\u0120pieces", "3756": "Oh", "3757": "\u00e6\u0122", "3758": "\u0120style", "3759": "pping", "3760": "\u0120reading", "3761": "\u0120conversation", "3762": "\u00d0\u00be\u00d0\u00bf", "3763": "\u00e4\u00be\u0128", "3764": "\u0120Again", "3765": "\u0120bank", "3766": "time", "3767": "\u00d1\u0125\u00d1\u0124", "3768": "erve", "3769": "\u0120Great", "3770": "\u0120capt", "3771": "\u00d0\u00b0\u00d0\u00b1", "3772": "ays", "3773": "\u0120Fin", "3774": "ification", "3775": "\u0120\u00c3\u00a4r", "3776": "\u00d0\u00b0\u00d1\u0130", "3777": "\u0120egg", "3778": "\u0120Wel", "3779": "\u0120target", "3780": "ula", "3781": "ches", "3782": "ani", "3783": "OO", "3784": "icious", "3785": "now", "3786": "\u00cf\u0125", "3787": "board", "3788": "\u0120gente", "3789": "\u0120dro", "3790": "\u0120Et", "3791": "\u0120din", "3792": "\u0120cos", "3793": "\u0120author", "3794": "\u00d8\u00b3", "3795": "\u0120och", "3796": "\u0120email", "3797": "\u0120spirit", "3798": "\u0120sitting", "3799": "mas", "3800": "\u0120strength", "3801": "\u0120bigger", "3802": "\u0120Wait", "3803": "\u0120mat", "3804": "\u0120police", "3805": "ressed", "3806": "\u0120waiting", "3807": "ishing", "3808": "\u0120dollars", "3809": "hood", "3810": "ss", "3811": "\u0120imagine", "3812": "ini", "3813": "\u0120mes", "3814": "\u0120dise", "3815": "idge", "3816": "abor", "3817": "\u0120pet", "3818": "\u0120hop", "3819": "\u0120King", "3820": "\u0120computer", "3821": "\u0120gold", "3822": "\u0120nu", "3823": "\u0120fing", "3824": "),", "3825": "\u0120security", "3826": "ruction", "3827": "\u0120solution", "3828": "ext", "3829": "\u0120patter", "3830": "icken", "3831": "ured", "3832": "\u0120standard", "3833": "\u00ec\u012d\u013e", "3834": "\u0120double", "3835": "\u00ce\u00b7", "3836": "\u0120wife", "3837": "isa", "3838": "\u0120directly", "3839": "aced", "3840": "\u0120bunch", "3841": "\u0120\u00c2\u00bf", "3842": "\u00d0\u00b0\u00d0\u00bb\u00d1\u012e", "3843": "\u0120regard", "3844": "\u0120sweet", "3845": "\u0120unique", "3846": "\u0120\u00e2\u013b\u00ab", "3847": "\u0120train", "3848": "\u0120Germ", "3849": "\u00ce\u00ac", "3850": "RE", "3851": "\u0120behav", "3852": "\u0120pred", "3853": "\u00ec\u0125", "3854": "set", "3855": "\u0120description", "3856": "\u00c3\u00a9e", "3857": "\u0120cat", "3858": "\u00e5\u0135", "3859": "\u0120college", "3860": "\u00ec\u013d", "3861": "\u0120application", "3862": "\u0120Sen", "3863": "ask", "3864": "\u0120cred", "3865": "ublic", "3866": "\u0120multiple", "3867": "\u0120ni", "3868": "\u0120president", "3869": "\u0120added", "3870": "\u0120rob", "3871": "\u0120aqui", "3872": "\u0120hosp", "3873": "\u0120tools", "3874": "\u0120gun", "3875": "\u0120basic", "3876": "\u0120lines", "3877": "\u0120structure", "3878": "\u0120Russ", "3879": "\u0120totally", "3880": "\u0120biggest", "3881": "\u0120een", "3882": "\u0120arg", "3883": "\u0120\u00d7\u013e", "3884": "\u0120park", "3885": "\u0120Des", "3886": "\u0120celebr", "3887": "\u0120fait", "3888": "\u00d0\u00b5\u00d0\u00bd\u00d1\u012e", "3889": "\u0120suff", "3890": "\u0120regular", "3891": "\u00a8\u00eb", "3892": "\u0120mine", "3893": "\u0120Kore", "3894": "\u0120previous", "3895": "\u0120pi", "3896": "\u0120seg", "3897": "\u0120policy", "3898": "\u0120\u00d0\u00ba\u00d0\u00be", "3899": "\u0120Trump", "3900": "\u0120vacc", "3901": "\u00c3\u00b3w", "3902": "\u0120Sy", "3903": "\u00d0\u00b8\u00d1\u0129", "3904": "itter", "3905": "\u0120political", "3906": "ras", "3907": "\u0120als", "3908": "\u00d0\u00b5\u00d0\u00bb\u00d1\u012e", "3909": "\u0120shape", "3910": "anz", "3911": "\u0120onto", "3912": "\u0120arch", "3913": "\u0120amb", "3914": "agram", "3915": "\u0120Sm", "3916": "ctions", "3917": "\u0120join", "3918": "bor", "3919": "\u00e5\u013d", "3920": "\u0120frame", "3921": "\u0142\u0129", "3922": "\u0120choice", "3923": "\u00e0\u00af\u0123", "3924": "\u00d1\u0125\u00d1\u0130", "3925": "\u0120Cor", "3926": "\u0120Sw", "3927": "IT", "3928": "\u0120tend", "3929": "\u0120Ear", "3930": "\u0120tor", "3931": "\u0120events", "3932": "\u0120claim", "3933": "\u0120Da", "3934": "\u0120Mark", "3935": "\u0120groups", "3936": "\u0120eating", "3937": "\u0120World", "3938": "\u0120recently", "3939": "\u0120taste", "3940": "\u0120surv", "3941": "\u00e0\u00a4", "3942": "\u0120skills", "3943": "\u0120\u00d0\u00b8\u00d0\u00b7", "3944": "itted", "3945": "\u0120shop", "3946": "\u00ec\u013f\u00b4\u00ec", "3947": "\u0120estab", "3948": "\u0120\u00eb\u0124\u013a", "3949": "\u0120seconds", "3950": "\u0120Those", "3951": "\u0120Ent", "3952": "\u0120\u00ec\u0126", "3953": "erson", "3954": "\u0120town", "3955": "\u0120cand", "3956": "\u0120options", "3957": "\u0120ing", "3958": "VID", "3959": "\u0120encour", "3960": "\u0120r\u00c3\u00a9", "3961": "\u00e2\u013b\u00aa", "3962": "\u0120entre", "3963": "\u0120movement", "3964": "\u0120Ben", "3965": "\u0120birth", "3966": "\u0120whe", "3967": "\u0120hang", "3968": "\u0120Em", "3969": "ige", "3970": "roll", "3971": "\u0120unf", "3972": "\u00ec\u0124", "3973": "\u0120rid", "3974": "\u0120spread", "3975": "\u0120host", "3976": "ald", "3977": "\u0120Ed", "3978": "\u0120consum", "3979": "UN", "3980": "\u0120opin", "3981": "itar", "3982": "\u0120Med", "3983": "\u0120subject", "3984": "\u0120pal", "3985": "\u0120carry", "3986": "\u0120agree", "3987": "\u0120While", "3988": "\u0120career", "3989": "\u0120scient", "3990": "\u0120sudden", "3991": "\u0120file", "3992": "zi", "3993": "\u0120except", "3994": "\u00e9\u00ba", "3995": "\u0120potential", "3996": "\u0120Another", "3997": "\u0120complex", "3998": "\u0120Sim", "3999": "endo", "4000": "\u0120rais", "4001": "\u0120physical", "4002": "\u0120date", "4003": "aker", "4004": "\u0120Col", "4005": "\u0120powerful", "4006": "\u0120member", "4007": "rap", "4008": "\u0120spot", "4009": "\u0120source", "4010": "\u0120fem", "4011": "\u00c3\u00a9m", "4012": "\u0120emp", "4013": "ji", "4014": "iety", "4015": "\u0120influ", "4016": "\u0120dry", "4017": "\u0120lock", "4018": "\u0120zero", "4019": "\u0120Uh", "4020": "\u0120rout", "4021": "\u0120porque", "4022": "\u012024", "4023": "\u0120tal", "4024": "\u0120folks", "4025": "\u0120launch", "4026": "\u0120compon", "4027": "\u0120Welcome", "4028": "\u0120kann", "4029": "\u00c3\u00a4n", "4030": "\u0120\u00d1\u012f\u00d1\u0124", "4031": "ees", "4032": "\u0120\u00d9\u012a", "4033": "\u0120anyway", "4034": "\u0120audience", "4035": "\u00e4\u00ba\u00ba", "4036": "\u0120slight", "4037": "ona", "4038": "\u0120ur", "4039": "\u0120relig", "4040": "\u0120extrem", "4041": "\u00c4\u00b1z", "4042": "\u0120Ma", "4043": "\u00ce\u00bc", "4044": "\u0120\u00c3\u00b6", "4045": "\u0120allows", "4046": "\u0120fat", "4047": "\u0120Face", "4048": "\u0120national", "4049": "\u0120interview", "4050": "\u0120Mc", "4051": "\u00c3\u00a9t", "4052": "\u0120cute", "4053": "ela", "4054": "\u0120secret", "4055": "\u0120West", "4056": "\u0120Dep", "4057": "\u0120exerc", "4058": "\u0120histor", "4059": "\u0120prior", "4060": "\u012060", "4061": "ava", "4062": "acher", "4063": "yond", "4064": "\u0120Ha", "4065": "\u0120este", "4066": "inary", "4067": "\u0120North", "4068": "onst", "4069": "\u0120smart", "4070": "ams", "4071": "\u00d0\u00b0\u00d0\u00bb\u00d0\u00b8", "4072": "\u0120dar", "4073": "ered", "4074": "\u0120funny", "4075": "\u0120Ob", "4076": "\u0120Black", "4077": "\u0120related", "4078": "\u0120Bu", "4079": "\u0120somewhere", "4080": "\u0120Rem", "4081": "nes", "4082": "mente", "4083": "\u0120Really", "4084": "\u0120creating", "4085": "\u0120famil", "4086": "\u0120society", "4087": "\u0120gel", "4088": "\u0120transform", "4089": "\u00c4\u0125", "4090": "\u0120include", "4091": "\u0120hol", "4092": "like", "4093": "ko", "4094": "airs", "4095": "\u0120\u00d0\u00bf\u00d0\u00be\u00d0\u00b4", "4096": "\u0120perspect", "4097": "\u0120bes", "4098": "\u0120particularly", "4099": "\u0120showing", "4100": "\u0120Part", "4101": "\u0120qual", "4102": "lock", "4103": "\u0120reality", "4104": "hold", "4105": "iction", "4106": "oon", "4107": "\u0120vir", "4108": "\u00e3\u0123\u00ab", "4109": "itary", "4110": "\u0120drug", "4111": "\u0120feature", "4112": "\u0120reasons", "4113": "\u0120\u00d7\u00a9", "4114": "\u0120wrote", "4115": "\u0120fant", "4116": "\u0120band", "4117": "\u00d9\u0125", "4118": "ena", "4119": "key", "4120": "\u0120earth", "4121": "dom", "4122": "\u0120features", "4123": "\u0120floor", "4124": "\u0120speaking", "4125": "\u0120tip", "4126": "\u0120Aust", "4127": "\u0120stock", "4128": "\u0120church", "4129": "\u0120rac", "4130": "\u00ec\u013e\u00bc\u00eb\u00a1\u013e", "4131": "\u00e0\u00b8\u013b", "4132": "\u00e3\u0124\u012e", "4133": "ky", "4134": "\u0120response", "4135": "\u00db\u012e", "4136": "ulations", "4137": "\u0120slide", "4138": "\u0120gradu", "4139": "cious", "4140": "\u0120meant", "4141": "\u0120==", "4142": "\u0120\u00d7\u0132\u00d7", "4143": "\u00e3\u0127", "4144": "\u0120kinda", "4145": "\u0120scene", "4146": "\u0120muit", "4147": "\u0120\u00ea\u00b0\u0122", "4148": "rast", "4149": "rest", "4150": "\u0120players", "4151": "wa", "4152": "\u0120broad", "4153": "\u0120tomorrow", "4154": "ocol", "4155": "\u0120\u00d1\u0123\u00d0\u00b2", "4156": "\u0120Bar", "4157": "\u00c4\u00b1k", "4158": "\u0120sea", "4159": "\u0120remove", "4160": "\u0120remind", "4161": "\u00d0\u00be\u00d0\u00bc\u00d1\u0125", "4162": "\u0120Since", "4163": "\u0120avec", "4164": "cell", "4165": "\u00d0\u00b8\u00d1\u0127", "4166": "\u0120document", "4167": "\u0120\u00ea\u00b7\u00b8\u00eb\u0141", "4168": "\u0120neigh", "4169": "beat", "4170": "\u0120p\u00c3\u00a5", "4171": "\u0120aspect", "4172": "\u0120ded", "4173": "lished", "4174": "ils", "4175": "\u0120ourselves", "4176": "uce", "4177": "\u0120hey", "4178": "\u0120\u00d0\u00bf\u00d1\u0122\u00d0\u00be", "4179": "enty", "4180": "\u0120associ", "4181": "ados", "4182": "umber", "4183": "\u0120]", "4184": "\u00e9\u0124\u00a3", "4185": "nov", "4186": "\u0120\u00ec\u013b", "4187": "\u00d1\u0125\u00d1\u0129", "4188": "\u0120condition", "4189": "\u00eb\u012c\u0136\u00eb\u012f\u00b0", "4190": "\u0120values", "4191": "\u0120scen", "4192": "minist", "4193": "\u0120cast", "4194": "\u0120growing", "4195": "\u0120user", "4196": "\u0120respond", "4197": "lim", "4198": "\u00c3\u00a9r", "4199": "ym", "4200": "\u00e7\u013e\u012d", "4201": "oses", "4202": "sych", "4203": "\u0120\u00d1\u0122\u00d0\u00b0\u00d0\u00b7", "4204": "\u0120appear", "4205": "\u0120progress", "4206": "ength", "4207": "\u0120jak", "4208": "\u0120Dis", "4209": "\u0120patients", "4210": "\u0120Ser", "4211": "\u0120gas", "4212": "\u00c3\u00a8re", "4213": "\u00ec\u0138\u00b4\u00ec\u013c\u0136", "4214": "\u0120reci", "4215": "\u00ec\u013f\u00b8", "4216": "\u0120sca", "4217": "epend", "4218": "\u00d1\u0123\u00d0\u00ba", "4219": "\u00d0\u00b0\u00d0\u00bf", "4220": "\u0120batter", "4221": "\u0120veh", "4222": "\u00f0\u0141", "4223": "\u0120accom", "4224": "\u0120beat", "4225": "\u0120paint", "4226": "\u0120contrib", "4227": "\u0120sad", "4228": "\u00c6\u00b0", "4229": "ales", "4230": "\u0120tree", "4231": "ba", "4232": "\u0120born", "4233": "iced", "4234": "\u00e0\u00ae\u0137", "4235": "band", "4236": "\u0120mechan", "4237": "\u0120Det", "4238": "\u0120capital", "4239": "\u0120deliver", "4240": "\u0120fear", "4241": "\u0140\u013a", "4242": "\u0120South", "4243": "\u0120bought", "4244": "\u0120stress", "4245": "\u0120vor", "4246": "??", "4247": "ih", "4248": "\u00ec\u0137\u00bc", "4249": "\u0120era", "4250": "\u00ec\u013f\u00b4\u00eb", "4251": "\u00d0\u00b0\u00d1\u0131", "4252": "isions", "4253": "ivity", "4254": "\u0120helped", "4255": "\u0120assist", "4256": "\u0120player", "4257": "ran", "4258": "\u0120immediately", "4259": "\u0120moved", "4260": "cie", "4261": "\u00ea\u00b1", "4262": "\u0120announ", "4263": "\u00e5\u00bf", "4264": "\u00ec\u0140\u0132", "4265": "\u0120production", "4266": "\u0120summer", "4267": "\u0120tun", "4268": "\u0120programs", "4269": "GH", "4270": "aling", "4271": "ira", "4272": "eless", "4273": ".)", "4274": "\u0120average", "4275": "\u00e8\u00a6\u0123", "4276": "\u0120glass", "4277": "oman", "4278": "ifically", "4279": "\u0120\u00eb\u012d\u00a4", "4280": "\u0120Cong", "4281": "\u0120Ver", "4282": "\u0120trick", "4283": "\u0120began", "4284": "\u0120vill", "4285": "\u00ea\u00b1\u00b0", "4286": "how", "4287": "\u00e6\u0143", "4288": "\u0120till", "4289": "\u012090", "4290": "bert", "4291": "\u0120\u00ea\u00b8", "4292": "\u0120temperature", "4293": "\u00c3\u00b2", "4294": "\u00e0\u00b9\u012a", "4295": "\u0120graph", "4296": "\u0120\u00ea\u00b7\u00b8", "4297": "\u0120rot", "4298": "\u0120mob", "4299": "AY", "4300": "ael", "4301": "\u0120repe", "4302": "\u0120device", "4303": "\u0120199", "4304": "\u0120tele", "4305": "\u0120kept", "4306": "pa", "4307": "\u00e6\u0138", "4308": "verse", "4309": "\u0120stream", "4310": "\u00d0\u00b5\u00d1\u0129", "4311": "ession", "4312": "\u0120strugg", "4313": "zz", "4314": "\u0120degree", "4315": "\u0120helping", "4316": "\u0120smell", "4317": "\u0120perhaps", "4318": "pro", "4319": "\u0120context", "4320": "\u0120ik", "4321": "\u0120\u00d0\u00bf\u00d0\u00b5\u00d1\u0122", "4322": "\u0120calcul", "4323": "\u00e9\u00ba\u00bc", "4324": "bing", "4325": "\u0120realize", "4326": "lam", "4327": "\u0120Char", "4328": "yt", "4329": "\u0120\u00ec\u013f\u00b4\u00ec", "4330": "\u0120danger", "4331": "\u0120Im", "4332": "aa", "4333": "\u0120loved", "4334": "\u0120purpose", "4335": "\u0120finished", "4336": "\u0120peace", "4337": "\u0120ot", "4338": "\u0120global", "4339": "\u00cf\u0122", "4340": "\u0120aber", "4341": "\u0138\u012a", "4342": "\u0120characters", "4343": "\u0120nur", "4344": "\u0120damage", "4345": "\u0120emer", "4346": "\u0120prec", "4347": "\u0120Wir", "4348": "\u0120instit", "4349": "\u0133\u00d7", "4350": "\u0120allowed", "4351": "bon", "4352": "\u0120tod", "4353": "\u00d0\u00b5\u00d0\u00b3\u00d0\u00be", "4354": "\u0120jetzt", "4355": "\u0120medic", "4356": "\u0120smaller", "4357": "ceed", "4358": "\u0120levels", "4359": "\u0120intell", "4360": "We", "4361": "\u0120sem", "4362": "\u0120currently", "4363": "\u0120modern", "4364": "\u0120contract", "4365": "\u0120details", "4366": "ortunately", "4367": "OS", "4368": "\u0120states", "4369": "\u0120adjust", "4370": "antage", "4371": "ez", "4372": "\u0120Very", "4373": "\u0120scale", "4374": "\u0120release", "4375": "\u0120faz", "4376": "\u0120ic", "4377": "itude", "4378": "AC", "4379": "\u0120Pat", "4380": "iden", "4381": "\u0143\u0132", "4382": "\u0120prefer", "4383": "ological", "4384": "\u0120Facebook", "4385": "\u0120\u00ea\u00b0\u013b", "4386": "\u0120..", "4387": "\u0120Make", "4388": "\u0120\u00d0\u00ba\u00d0\u00be\u00d1\u0124\u00d0\u00be\u00d1\u0122", "4389": "\u0120David", "4390": "\u0120Afric", "4391": "\u0120mode", "4392": "\u0120City", "4393": "\u0120shall", "4394": "\u0120\u00d1\u0126", "4395": "imin", "4396": "\u0120\u00d0\u00b7\u00d0\u00b0", "4397": "rom", "4398": "ua", "4399": "\u0120beyond", "4400": "\u0120distrib", "4401": "\u00d0\u00ba\u00d1\u0125", "4402": "\u0120Does", "4403": "\u0120vict", "4404": "rate", "4405": "\u0120vai", "4406": "\u0120successful", "4407": "\u0120hous", "4408": "aha", "4409": "ests", "4410": "\u0120Est", "4411": "\u0120discover", "4412": "\u0120therefore", "4413": "cha", "4414": "\u0120cup", "4415": "\u0120population", "4416": "\u0120Il", "4417": "sc", "4418": "\u0120spent", "4419": "rel", "4420": "\u0120useful", "4421": "\u0120tab", "4422": "\u00e6\u013f", "4423": "\u0120\u00c5", "4424": "\u0120\u00ec\u0142\u013e", "4425": "\u0120conse", "4426": "\u0120quant", "4427": "aya", "4428": "\u0120bon", "4429": "\u00e5\u0131\u00af", "4430": "\u0120Chin", "4431": "\u0120\u00ea\u00b2\u0125", "4432": "ounds", "4433": "\u00d0\u00b5\u00d1\u012a", "4434": "elle", "4435": "\u0120ice", "4436": "21", "4437": "\u0120kick", "4438": "\u00e4\u00b8\u012d", "4439": "\u0120steps", "4440": "\u0120tonight", "4441": "\u00d0\u00bd\u00d1\u012d\u00d0\u00b9", "4442": "rench", "4443": ".'", "4444": "\u0120grab", "4445": "\u0120implement", "4446": "\u0120\u00ec\u012a\u013a", "4447": "\u0120mission", "4448": "\u0120clearly", "4449": "\u0120appreciate", "4450": "\u00e8\u0122", "4451": "\u0120fresh", "4452": "arm", "4453": "\u0120Two", "4454": "\u0120exec", "4455": "\u0120projects", "4456": "\u0120communities", "4457": "rible", "4458": "\u0120region", "4459": "\u0120frequ", "4460": "roy", "4461": "\u0120however", "4462": "\u0120partners", "4463": "anc", "4464": "\u0120minim", "4465": "\u0120lat", "4466": "\u0120families", "4467": "\u0120evidence", "4468": "\u0120pun", "4469": "raft", "4470": "\u0120loss", "4471": "\u0120map", "4472": "\u0120anybody", "4473": "\u0120changing", "4474": "\u0120rules", "4475": "\u0120organization", "4476": "\u0120essentially", "4477": "\u0120Red", "4478": "\u0120element", "4479": "\u00e6\u0139", "4480": "\u0120virt", "4481": "rat", "4482": "\u0120print", "4483": "ander", "4484": "aren", "4485": "emos", "4486": "\u00ce\u00bf\u00cf\u0127", "4487": "\u0120conditions", "4488": "abe", "4489": "\u0120dance", "4490": "\u00d0\u00b8\u00d1\u0122", "4491": "\u0120dos", "4492": "\u00d0\u00be\u00d1\u0129", "4493": "\u0120Que", "4494": "\u0120walking", "4495": "\u0120tro", "4496": "\u0120id", "4497": "\u0120additional", "4498": "\u0120fully", "4499": "\u0120fans", "4500": "\u0120addition", "4501": "\u0120liked", "4502": "\u0120\u00c3\u00bcber", "4503": "\u0120bow", "4504": "di", "4505": "\u0120master", "4506": "off", "4507": "):", "4508": "mber", "4509": "\u0120\u00eb\u00ac", "4510": "\u00e5\u00af", "4511": "\u00e5\u012a\u00b0", "4512": "lause", "4513": "\u0120oder", "4514": "\u0120safety", "4515": "\u0120react", "4516": "\u00e0\u00ae\u00bf", "4517": "bt", "4518": "\u0120disapp", "4519": "\u0120girls", "4520": "St", "4521": "\u0120Ang", "4522": "\u0120faith", "4523": "\u0120turns", "4524": "\u0120tight", "4525": "\u0120mouth", "4526": "ami", "4527": "zer", "4528": "\u0120weap", "4529": "\u0120\u00d0\u00b1\u00d1\u0125\u00d0\u00b4", "4530": "\u0120hospital", "4531": "raid", "4532": "\u0120micro", "4533": "\u0120State", "4534": "\u0120Most", "4535": "agn", "4536": "\u0120decide", "4537": "\u0120patient", "4538": "\u0120corner", "4539": "\u0120died", "4540": "No", "4541": "\u0120Stud", "4542": "rend", "4543": "empt", "4544": "\u0120lie", "4545": "\u0120lif", "4546": "\u0120Before", "4547": "t\u00c3\u00b3", "4548": "\u0120Super", "4549": "\u0120bell", "4550": "60", "4551": "\u0120private", "4552": "\u0120Paul", "4553": "\u0120gib", "4554": "\u0120agre", "4555": "\u00b4\u00ec\u0126\u013e", "4556": "\u0120sig", "4557": "\u0120investig", "4558": "\u00d1\u0131\u00d1\u0124", "4559": "ening", "4560": "\u0120distance", "4561": "\u0120warm", "4562": "\u0120digital", "4563": "\u00e5\u00be\u012a", "4564": "iner", "4565": "\u0120pand", "4566": "\u0120COVID", "4567": "\u00d0\u00b3\u00d0\u00be", "4568": "gn", "4569": "\u0120race", "4570": "\u0120proud", "4571": "\u0120teaching", "4572": "\u0120\u00d1\u0124\u00d0\u00be", "4573": "\u00ec\u0140\u00a5", "4574": "\u0120Allah", "4575": "In", "4576": "\u0120wood", "4577": "\u0120colors", "4578": "\u0120wird", "4579": "uj", "4580": "idad", "4581": "\u0120customers", "4582": "\u0120connected", "4583": "\u0120layer", "4584": "\u0120achieve", "4585": "\u0120perspective", "4586": "\u0120Coll", "4587": "\u00d9\u0124", "4588": "\u0120cloud", "4589": "!!!", "4590": "\u0120ended", "4591": "\u0142\u0129\u00ea\u00b2\u012e", "4592": "\u0120management", "4593": "\u0120rich", "4594": "\u0120subst", "4595": "\u0120remo", "4596": "\u0120serve", "4597": "\u0120resist", "4598": "\u0120thoughts", "4599": "\u0120growth", "4600": "iliar", "4601": "\u0120rights", "4602": "\u0120charge", "4603": "\u0120consist", "4604": "\u0120werden", "4605": "\u0120emb", "4606": "andom", "4607": "\u0120hurt", "4608": "\u0120kan", "4609": "ias", "4610": "\u00d0\u00bb\u00d0\u00be", "4611": "\u0120shit", "4612": "\u0120beg", "4613": "\u0120received", "4614": "itation", "4615": "\u0120meat", "4616": "\u0120isso", "4617": "ffee", "4618": "\u0120famous", "4619": "\u0120comfortable", "4620": "IL", "4621": "\u0120Bye", "4622": "\u00e8\u00aa\u00aa", "4623": "\u00e5\u0122\u0133", "4624": "othes", "4625": "\u0120medical", "4626": "\u0120enjoyed", "4627": "\u0120healthy", "4628": "\u0120wy", "4629": "cies", "4630": "\u0120effort", "4631": "\u0120doctor", "4632": "\u0120military", "4633": "LAU", "4634": "\u0120gro", "4635": "\u0120battle", "4636": "\u0120fed", "4637": "\u0120capac", "4638": "\u0120afraid", "4639": "ivil", "4640": "\u0120\u00d0\u00b2\u00d1\u0123\u00d0\u00b5", "4641": "\u0120length", "4642": "ysis", "4643": "\u0120bei", "4644": "\u00a4\u00ed", "4645": "\u0120organiz", "4646": "org", "4647": "inc", "4648": "\u0120interact", "4649": "\u0120Chinese", "4650": "\u0120according", "4651": "\u0120incredible", "4652": "\u0120killed", "4653": "\u0120daughter", "4654": "\u0120\u00cf\u0122", "4655": "\u00d1\u012d\u00d0\u00b2", "4656": "\u0120schools", "4657": "\u0120\u00c2\u00ab", "4658": "ller", "4659": "\u0120shouldn", "4660": "nal", "4661": "\u0120cris", "4662": "\u0120chicken", "4663": "\u0120faster", "4664": "\u0120extremely", "4665": "\u0120oppos", "4666": "\u0120nous", "4667": "\u0120+", "4668": "ria", "4669": "\u0120financial", "4670": "\u0120exciting", "4671": "\u0120journey", "4672": "\u00d7\u013b\u00d7\u013f", "4673": "\u0142\u00eb", "4674": "\u0120display", "4675": "\u0120memory", "4676": "\u0120heavy", "4677": "\u00d0\u00bd\u00d0\u00b5", "4678": "\u0120passed", "4679": "\u00d1\u0122\u00d0\u00b8", "4680": "iles", "4681": "\u0120psych", "4682": "\u0120specifically", "4683": "\u0120engage", "4684": "\u0120led", "4685": "orge", "4686": "\u0120Dem", "4687": "order", "4688": "\u012080", "4689": "\u0120cream", "4690": "esterday", "4691": "\u0120edge", "4692": "\u0120\u00d0\u00bf\u00d0\u00be\u00d0\u00bb", "4693": "\u0120bull", "4694": "\u0120indic", "4695": "\u0120kt\u00c3\u00b3", "4696": "\u0120hopefully", "4697": "uments", "4698": "agen", "4699": "\u00d0\u00bd\u00d0\u00be\u00d0\u00b3\u00d0\u00be", "4700": "\u0120hate", "4701": "cht", "4702": "80", "4703": "\u0120effic", "4704": "\u0120\u00ec\u00a7\u0122", "4705": "\u0120internet", "4706": "\u0120budget", "4707": "\u0120property", "4708": "iday", "4709": "\u0120\u00ec\u013c", "4710": "\u0120\u00d0\u00bc\u00d0\u00be\u00d0\u00b6", "4711": "ola", "4712": "\u0120showed", "4713": "\u0120Mon", "4714": "\u0120thousand", "4715": "AP", "4716": "\u0120poor", "4717": "used", "4718": "\u0120Jack", "4719": "\u0120s\u00c3\u00a5", "4720": "\u0125\u00bd", "4721": "\u0120esc", "4722": "\u0120software", "4723": "\u0120quar", "4724": "\u0120\u00d8\u00a8", "4725": "\u0120necessarily", "4726": "omen", "4727": "iy", "4728": "\u0120eventually", "4729": "ished", "4730": "\u0120bright", "4731": "ED", "4732": "\u0120spl", "4733": "\u0120demand", "4734": "\u0120threat", "4735": "\u0120sir", "4736": "\u0120released", "4737": "cket", "4738": "\u0120\u00e2\u0122\u00ab", "4739": "\u0120required", "4740": "\u0120vote", "4741": "\u00ec\u00b9", "4742": "\u00e0\u00ae\u00a4", "4743": "\u0120developed", "4744": "\u0120\u00ec\u0124\u00ac", "4745": "atory", "4746": "\u0120dir", "4747": "cape", "4748": "\u0120slightly", "4749": "\u00c3\u00ac", "4750": "\u00e0\u00b9\u012b", "4751": "reet", "4752": "\u0120disease", "4753": "\u0120court", "4754": "\u0120items", "4755": "\u0120Earth", "4756": "\u00d1\u0123\u00d1\u0124\u00d0\u00b8", "4757": "\u00d0\u00b6\u00d0\u00b5", "4758": "\u00ec\u00b2", "4759": "\u0120challenges", "4760": "\u0120Brit", "4761": "\u0120designed", "4762": "12", "4763": "\u0120hearing", "4764": "\u0120listening", "4765": "zo", "4766": "\u0120\u00d1\u0123\u00d0\u00bb", "4767": "\u00e3\u0123\u00a7\u00e3\u0123\u013b", "4768": "\u0120pero", "4769": "\u0120wearing", "4770": "plic", "4771": "\u0120chem", "4772": "\u0120balance", "4773": "\u0120ba", "4774": "\u0120receive", "4775": "ima", "4776": "\u0120significant", "4777": "\u0120\u00d0\u00bc\u00d1\u012d", "4778": "anch", "4779": "\u0120Cr", "4780": "\u0120Coun", "4781": "\u00ea\u00b8\u012a", "4782": "\u0120jobs", "4783": "\u0120official", "4784": "\u0120perm", "4785": "oms", "4786": "\u0120opportunities", "4787": "\u0120overall", "4788": "\u0120hus", "4789": "odes", "4790": "\u0120nation", "4791": "\u0120Reg", "4792": "\u0120ord", "4793": "\u0120restaur", "4794": "\u0120\u00ec\u0128", "4795": "\u0120mel", "4796": "vin", "4797": "\u0120wenn", "4798": "\u0120k\u00c3\u00b6n", "4799": "\u00e6\u0125", "4800": "\u0120opinion", "4801": "\u00e3\u0124\u0124", "4802": "\u00e8\u00ac", "4803": "\u0120Sometimes", "4804": "\u00e7\u0124", "4805": "\u00d1\u012b\u00d0\u00b5", "4806": "asc", "4807": "OU", "4808": "\u01202020", "4809": "\u0120delicious", "4810": "iger", "4811": "\u0120\u00ec\u0137\u012a", "4812": "ole", "4813": "\u0120handle", "4814": "\u0120cit", "4815": "\u0120\u00ed\u0137\u013e", "4816": "\u0120f\u00c3\u00b6r", "4817": "ooth", "4818": "\u0120necessary", "4819": "\u0120independ", "4820": "\u00e6\u0126", "4821": "isten", "4822": "ham", "4823": "\u0120\u00c3\u00a9t", "4824": "\u00e3\u0125\u00b3", "4825": "\u0120multi", "4826": "\u00cf\u012e", "4827": "?)", "4828": "\u0120campus", "4829": "\u0120topic", "4830": "\u0120rain", "4831": "\u0120panel", "4832": "\u0120Sam", "4833": "\u0120larger", "4834": "audience", "4835": "\u0120paid", "4836": "\u0120economic", "4837": "olt", "4838": "\u0120street", "4839": "\u0120Cont", "4840": "\u0120driving", "4841": "\u0120\u00ec\u0142\u0122", "4842": "\u0120hay", "4843": "\u0120professional", "4844": "\u0120Intern", "4845": "\u00e5\u00b8", "4846": "\u0120input", "4847": "\u0120categ", "4848": "\u0120cro", "4849": "\u0120ll", "4850": "ET", "4851": "\u00d1\u012d\u00d0\u00b9", "4852": "**", "4853": "\u0120Ze", "4854": "BLE", "4855": "\u0120\u00ec\u00a4", "4856": "rees", "4857": "\u0120\u00d0\u00af", "4858": "ede", "4859": "iert", "4860": "\u0120fold", "4861": "\u0120dur", "4862": "\u0120National", "4863": "\u0120\u00ec\u0138\u00b4\u00eb", "4864": "anced", "4865": "\u0120faire", "4866": "uted", "4867": "\u0120king", "4868": "\u0120wild", "4869": "oi", "4870": "upbeat", "4871": "\u0120prevent", "4872": "ius", "4873": "\u0120\u00c3\u00a8", "4874": "\u0120wide", "4875": "\u0120ring", "4876": "\u0120title", "4877": "\u0120standing", "4878": "\u0120although", "4879": "\u0120hi", "4880": "\u0120sauce", "4881": "\u0120sides", "4882": "\u0120animals", "4883": "iling", "4884": "atives", "4885": "\u00ec\u0139\u0132\u00ec\u0126\u013e", "4886": "\u0120Over", "4887": "\u0120desp", "4888": "\u0120considered", "4889": "aries", "4890": "iers", "4891": "\u0120einen", "4892": "\u0120sister", "4893": "\u0120\u00eb\u0137", "4894": "\u0120Sure", "4895": "\u00e3\u0124\u012d", "4896": "riend", "4897": "aign", "4898": "\u0120shown", "4899": "\u0120sac", "4900": "\u0120sont", "4901": "\u0120century", "4902": "\u0120tien", "4903": "\u0120\u00ce\u00ba", "4904": "\u0120ST", "4905": "\u00e5\u0137\u012c", "4906": "\u0120older", "4907": "iem", "4908": "\u0120truly", "4909": "\u0120Si", "4910": "\u0120window", "4911": "iques", "4912": "ario", "4913": "\u00e6\u00b2\u0134", "4914": "\u0120location", "4915": "\u00ce\u00ba", "4916": "\u0120\u00ec\u013e", "4917": "vi", "4918": "ague", "4919": "\u0120Sorry", "4920": "\u0120disp", "4921": "\u0120hell", "4922": "\u0120\u00c3\u012b", "4923": "\u0120trade", "4924": "\u0120critical", "4925": "\u0120\u00ea\u00b1", "4926": "\u0120named", "4927": "\u0120prepared", "4928": "\u0120House", "4929": "alu", "4930": "\u0120tough", "4931": "\u0120trip", "4932": "\u0120sand", "4933": "cel", "4934": "\u00c3\u00bcz", "4935": "\u0120Put", "4936": "\u0120apart", "4937": "isf", "4938": "vis", "4939": "\u0120libr", "4940": "aven", "4941": "\u0120vie", "4942": "\u0120effective", "4943": "\u00e0\u00b8\u00b2", "4944": "\u0120magn", "4945": "\u0120muito", "4946": "\u0120\u00ea\u00b5", "4947": "hal", "4948": "\u0120limit", "4949": "\u0120nine", "4950": "\u0120willing", "4951": "\u00c4\u00b1\u00c5\u0141", "4952": "sp", "4953": "\u00d0\u00b5\u00d0\u00b3", "4954": "hi", "4955": "\u0120alt", "4956": "\u0120Jan", "4957": "\u0120origin", "4958": "\u0120Us", "4959": "\u0120elements", "4960": "\u0120uses", "4961": "\u0120helpful", "4962": "\u0120flat", "4963": "\u0120familiar", "4964": "\u0120Park", "4965": "\u0120core", "4966": "\u0120closer", "4967": "\u0120active", "4968": "\u0120administ", "4969": "CE", "4970": "\u00d0\u00bd\u00d1\u012d\u00d0\u00b5", "4971": "\u00e7\u0126", "4972": "\u0120relative", "4973": "\u0120mental", "4974": "\u0120random", "4975": "\u0120partner", "4976": "\u0120util", "4977": "phone", "4978": "\u0120rule", "4979": "ww", "4980": "\u0120\u00ec\u0142\u0137", "4981": "\u0120schon", "4982": "\u0120coffee", "4983": "HA", "4984": "\u0120connection", "4985": "\u0120unit", "4986": "laughing", "4987": "log", "4988": "\u0120appl", "4989": "\u00d0\u00bb\u00d0\u00b0", "4990": "usic", "4991": "\u0120Bra", "4992": "\u0120anywhere", "4993": "AUDI", "4994": "\u0120separate", "4995": "box", "4996": "\u0120divid", "4997": "\u0120testing", "4998": "\u0120sick", "4999": "\u0120weren", "5000": "\u00e4\u00bb\u0138", "5001": "\u0120\u00d7\u013e\u00d7", "5002": "\u0120advantage", "5003": "\u0120transfer", "5004": "'.", "5005": "\u0120\u00eb\u00b9", "5006": "\u0120finding", "5007": "\u00d0\u00bd\u00d0\u00be\u00d0\u00b9", "5008": "\u0120\u00ec\u00a2\u012d", "5009": "\u0120fort", "5010": "\u0120economy", "5011": "\u0120lack", "5012": "\u0120leaving", "5013": "\u0120dim", "5014": "\u00e5\u0130", "5015": "\u0120Res", "5016": "\u00d8\u0143", "5017": "\u0120discussion", "5018": "\u00d0\u00b5\u00d0\u00bf", "5019": "\u0120ges", "5020": "duct", "5021": "\u0120chain", "5022": "\u0120users", "5023": "ech", "5024": "\u00c5\u0124a", "5025": "\u0120dish", "5026": "\u0120careful", "5027": "\u0120teacher", "5028": "\u0120optim", "5029": "\u0120flu", "5030": "atically", "5031": "\u0120reflect", "5032": "\u0120treatment", "5033": "eed", "5034": "i\u00c4\u013b", "5035": "\u00c3\u00b9", "5036": "\u00e0\u00ae\u00be", "5037": "\u0120equip", "5038": "\u0120planning", "5039": "\u0120solve", "5040": "\u00e3\u0123\u013f", "5041": "\u0120Tom", "5042": "\u0120avoid", "5043": "\u0120pou", "5044": "\u0120greater", "5045": "lin", "5046": "OL", "5047": "\u0120Lu", "5048": "\u0120More", "5049": "\u0120attract", "5050": "\u00c3\u00aan", "5051": "una", "5052": "\u0120photo", "5053": "eration", "5054": "\u0120planet", "5055": "\u0120copy", "5056": "\u0120visual", "5057": "iring", "5058": "\u0120international", "5059": "\u0120laughing", "5060": "\u0120thick", "5061": "\u0120holding", "5062": "\u0120bringing", "5063": "\u0120letter", "5064": "\u0120burn", "5065": "\u0120effects", "5066": "it\u00c3\u00a9", "5067": "ours", "5068": "OT", "5069": "\u00c3\u00aame", "5070": "\u0120School", "5071": "\u00d7\u0137\u00d7\u00aa", "5072": "ropri", "5073": "lig", "5074": "\u00ce\u00b1\u00ce\u00b9", "5075": "\u0120adult", "5076": "\u0120sugar", "5077": "\u0120ride", "5078": "\u0120highlight", "5079": "\u0120nobody", "5080": "\u012021", "5081": "\u0120chat", "5082": "\u0120\u00d0\u00bf\u00d1\u0122\u00d0\u00b8", "5083": "\u0120innov", "5084": "ungen", "5085": "\u0120attach", "5086": "edom", "5087": "\u00e5\u012c", "5088": "yl", "5089": "\u0120legal", "5090": "\u0120rice", "5091": "\u0120collabor", "5092": "king", "5093": "down", "5094": "\u00e6\u013b", "5095": "\u00e3\u0124\u012c", "5096": "\u0120ih", "5097": "\u0120Ac", "5098": "ously", "5099": "\u0120rap", "5100": "\u0120solid", "5101": "\u0120generally", "5102": "\u0120pattern", "5103": "ali", "5104": "\u00e0\u00b8\u0143", "5105": "\u0120transl", "5106": "inter", "5107": "ault", "5108": "\u0120\u00eb\u00a8", "5109": "\u0120express", "5110": "\u0120examples", "5111": "\u0120chose", "5112": "\u0120tells", "5113": "\u00c3\u0143s", "5114": "aint", "5115": "\u0120Tell", "5116": "\u0120Michael", "5117": "\u00e6\u00a8", "5118": "\u0120Number", "5119": "\u0120tap", "5120": "\u0120experiment", "5121": "\u0120benefit", "5122": "\u0120\u00ec\u00b0", "5123": "\u0120sequ", "5124": "\u0120expensive", "5125": "\u0120generation", "5126": "\u0120Many", "5127": "\u0120adding", "5128": "\u0120kil", "5129": "\u0120campaign", "5130": "\u0120Ant", "5131": "raw", "5132": "ommen", "5133": "\u0120soul", "5134": "jo", "5135": "\u0120Actually", "5136": "amm", "5137": "\u00ea\u00b2\u0142", "5138": "\u0120maxim", "5139": "\u0120salt", "5140": "\u0120cru", "5141": "\u0120calling", "5142": "\u00e3\u0123\u012e", "5143": "\u0120basis", "5144": "ban", "5145": "\u0120keeping", "5146": "\u0120Mor", "5147": "eds", "5148": "\u00ec\u0128", "5149": "\u0120todo", "5150": "\u00d0\u00b0\u00d0\u00bc\u00d0\u00b8", "5151": "\u00d0\u00bd\u00d1\u0131", "5152": "\u0120lived", "5153": "\u0120Du", "5154": "\u00e3\u0124\u012b", "5155": "\u00e5\u00ae\u00b6", "5156": "force", "5157": "\u00e5\u00b9\u00b4", "5158": "ference", "5159": "ala", "5160": "\u0120occur", "5161": "sk", "5162": "\u0120recent", "5163": "\u0120cars", "5164": "\u0120traditional", "5165": "entle", "5166": "\u00b2\u012a", "5167": "\u0120held", "5168": "\u0120nach", "5169": "\u0120Center", "5170": "eren", "5171": "\u0120bin", "5172": "\u00d9\u0123", "5173": "\u0120comme", "5174": "\u0120reve", "5175": "\u0120\u00ec\u013a\u00a4", "5176": "\u0120expected", "5177": "abil", "5178": "\u0120focused", "5179": "ov", "5180": "\u0120iP", "5181": "orial", "5182": "iro", "5183": "\u0120etc", "5184": "aming", "5185": "\u0120Son", "5186": "\u0120yesterday", "5187": "\u0120strate", "5188": "\u0120\u00d1\u0128", "5189": "\u0120\u00eb\u0131", "5190": "pes", "5191": "\u0120activity", "5192": "\u0120advice", "5193": "\u0120opening", "5194": "fin", "5195": "\u0120rela", "5196": "\u00e9\u0138", "5197": "\u0120instance", "5198": "\u0120Everyone", "5199": "bl", "5200": "pen", "5201": "\u0120vision", "5202": "\u0120Alex", "5203": "iforn", "5204": "\u0120tick", "5205": "He", "5206": "\u0120strategy", "5207": "\u0120kom", "5208": "PE", "5209": "\u0120Gl", "5210": "\u0120electric", "5211": "15", "5212": "\u0120daily", "5213": "\u0120husband", "5214": "\u0120station", "5215": "\u0120analysis", "5216": "ynam", "5217": "\u0120attempt", "5218": "\u0120billion", "5219": "vant", "5220": "\u0120forth", "5221": "\u0120math", "5222": "aly", "5223": "\u0120behavior", "5224": "\u0120Mas", "5225": "kan", "5226": "\u0120Day", "5227": "\u0120bless", "5228": "\u0120gut", "5229": "\u0120High", "5230": "ox", "5231": "\u0120dress", "5232": "\u0120jed", "5233": "\u00e8\u00af", "5234": "\u00e5\u0138", "5235": "\u0120experiences", "5236": "ista", "5237": "\u0120fighting", "5238": "\u00e5\u00b7", "5239": "\u0120\u00d1\u0123\u00d0\u00ba", "5240": "\u0120mostly", "5241": "ause", "5242": "\u0120pictures", "5243": "\u00d0\u00b5\u00d0\u00bd\u00d1\u0124", "5244": "\u0120mad", "5245": "\u0120models", "5246": "\u00d1\u012a\u00d0\u00b5", "5247": "\u0120Count", "5248": "\u00c5\u0126", "5249": "\u00c5\u0124o", "5250": "ept", "5251": "OM", "5252": "\u0120AN", "5253": "\u0120trouble", "5254": "40", "5255": "\u0120bird", "5256": "ulate", "5257": "\u0120mur", "5258": "\u0120produce", "5259": "\u0120married", "5260": "bit", "5261": "\u0120theory", "5262": "\u00ed\u013a", "5263": "\u0120leader", "5264": "\u0120Last", "5265": "AA", "5266": "\u00e8\u00b5", "5267": "\u0120images", "5268": "\u0120expand", "5269": "\u0120Por", "5270": "\u0120purch", "5271": "\u0120San", "5272": "\u0120Christmas", "5273": "\u0120Austral", "5274": "\u0120wid", "5275": "\u0120Miss", "5276": "\u0120knowing", "5277": "\u0120ze", "5278": "ship", "5279": "ku", "5280": "\u00d1\u0127\u00d0\u00be\u00d0\u00b4", "5281": "\u0120Instagram", "5282": "\u0120India", "5283": "\u0120esta", "5284": "\u0120Californ", "5285": "\u012070", "5286": "\u0120drag", "5287": "\u0120brush", "5288": "\u0120names", "5289": "And", "5290": "\u0120yo", "5291": "illa", "5292": "\u0120sched", "5293": "\u0120destroy", "5294": "year", "5295": "\u0120vamos", "5296": "\u0120\u00d9\u0126", "5297": "\u00c3\u00a7a", "5298": "\u0120forgot", "5299": "\u00d0\u00b8\u00d0\u00b5", "5300": "\u0120raise", "5301": "reme", "5302": "\u00ed\u0137\u00b4", "5303": "\u0120Give", "5304": "\u0120contain", "5305": "rab", "5306": "\u0120gift", "5307": "\u0120\u00d1\u0123\u00d0\u00bf", "5308": "\u0120request", "5309": "\u0120shut", "5310": "\u0120degrees", "5311": "\u0120benefits", "5312": "\u00d1\u012d\u00d0\u00b5", "5313": "\u0120studies", "5314": "\u0120ends", "5315": "\u0120everywhere", "5316": "\u0120hero", "5317": "oph", "5318": "erry", "5319": "\u0120materials", "5320": "ened", "5321": "NA", "5322": "\u00e5\u012f", "5323": "\u0120muy", "5324": "\u0120worse", "5325": "\u00e4\u00bb\u0122", "5326": "\u0120Mad", "5327": "\u0120decisions", "5328": "ione", "5329": "\u0120foreign", "5330": "laughter", "5331": "iber", "5332": "\u00d0\u00b5\u00d0\u00bd\u00d0\u00b8\u00d1\u0131", "5333": "\u00e3\u0127\u012d", "5334": "\u0120realized", "5335": "\u0120ign", "5336": "\u0120weak", "5337": "\u0120\u00ce\u00bc", "5338": "\u0120scared", "5339": "\u0120assum", "5340": "AK", "5341": "\u00ef\u00bf", "5342": "\u00ef\u00bf\u00bd", "5343": "\u0120covered", "5344": "\u0120Sat", "5345": "\u0120\u00d0\u00be\u00d0\u00bd", "5346": "\u0120individuals", "5347": "\u0120compared", "5348": "11", "5349": "\u0120Add", "5350": "icles", "5351": "\u0120cert", "5352": "rar", "5353": "\u0120brief", "5354": "\u0120activities", "5355": "\u0120fab", "5356": "bar", "5357": "\u0120ast", "5358": "\u0120Other", "5359": "\u0120classes", "5360": "\u0120og", "5361": "\u0120missing", "5362": "\u00e3\u0123\u0142", "5363": "\u00e9\u013f", "5364": "wers", "5365": "\u00d7\u00a9", "5366": "\u0120introduce", "5367": "\u0120equation", "5368": "\u00e3\u0123\u00be\u00e3\u0123\u013b", "5369": "\u0120nom", "5370": "\u0120painting", "5371": "ushing", "5372": "\u0120AP", "5373": "\u0120encourage", "5374": "\u0120ship", "5375": "ittee", "5376": "iverse", "5377": "ota", "5378": "nam", "5379": "\u00e3\u0125\u00bb", "5380": "\u0120exercise", "5381": "\u0120\u00d0\u0143", "5382": "\u0120nas", "5383": "\u0120thousands", "5384": "\u0120California", "5385": "\u0120ses", "5386": "\u0120row", "5387": "\u0140\u012a", "5388": "\u0120pandemic", "5389": "\u0120skill", "5390": "bel", "5391": "\u0120director", "5392": "\u0120milk", "5393": "\u0120nut", "5394": "\u0120motion", "5395": "\u0120closed", "5396": "\u00e8\u00a8", "5397": "\u0120credit", "5398": "ahr", "5399": "\u0120cheese", "5400": "\u0120altern", "5401": "imately", "5402": "\u0120sust", "5403": "\u0120Tra", "5404": "\u0120glad", "5405": "\u0120highly", "5406": "\u0120wa", "5407": "\u0120reduce", "5408": "\u0120ble", "5409": "ador", "5410": "inated", "5411": "iones", "5412": "cient", "5413": "\u0120depending", "5414": "\u0120sharing", "5415": "\u0120caught", "5416": "rael", "5417": "\u0120mehr", "5418": "\u0120passion", "5419": "\u00e7\u013d", "5420": "\u0120ru", "5421": "\u0120farm", "5422": "TI", "5423": "aves", "5424": "\u0120Rob", "5425": "\u0120Bro", "5426": "\u0120motiv", "5427": "retch", "5428": "rupt", "5429": "\u0120Big", "5430": "\u0120alle", "5431": "\u0120ett", "5432": "ubs", "5433": "\u0120Japanese", "5434": "\u0120Hall", "5435": "\u00d0\u00b8\u00d0\u00bb\u00d0\u00b8", "5436": "AUDIBLE", "5437": "\u00e7\u00ac", "5438": "\u0120cells", "5439": "ika", "5440": "eline", "5441": "iler", "5442": "\u0120\u00ec\u00a3", "5443": "\u0120sky", "5444": "INAUDIBLE", "5445": "ende", "5446": "apter", "5447": "\u0120pin", "5448": "\u0120gather", "5449": "hol", "5450": "lection", "5451": "\u0120syn", "5452": "\u0120plug", "5453": "round", "5454": "\u0120university", "5455": "hib", "5456": "\u0120fantastic", "5457": "kn", "5458": "\u0120hole", "5459": "\u0120Remember", "5460": "inct", "5461": "aks", "5462": "CH", "5463": "\u0120broken", "5464": "\u0120strateg", "5465": "\u0120alive", "5466": "\u0120tank", "5467": "\u0120cart", "5468": "rated", "5469": "rie", "5470": "\u0120Step", "5471": "\u0120Everything", "5472": "\u0120bound", "5473": "\u0120sobre", "5474": "\u0120customer", "5475": "\u00a1\u012e", "5476": "urg", "5477": "\u0120Bill", "5478": "La", "5479": "what", "5480": "\u0120reaction", "5481": "\u0120session", "5482": "\u0120plans", "5483": "\u0120\u00ec\u013f\u00b4\u00eb\u0142\u0129\u00ea\u00b2\u012e", "5484": "\u0120download", "5485": "\u00ec\u013b", "5486": "uer", "5487": "\u0120cab", "5488": "\u0120instr", "5489": "ifying", "5490": "\u0120Nice", "5491": "\u0120teams", "5492": "\u00c4\u00b1l", "5493": "\u0120goals", "5494": "isch", "5495": "\u0120transport", "5496": "\u0120animal", "5497": "\u0120costs", "5498": "\u0120calls", "5499": "\u0120sehr", "5500": "\u00ec\u012a", "5501": "rian", "5502": "\u0120dial", "5503": "\u0120weather", "5504": "\u00e0\u00b9\u0122", "5505": "\u0120\u00d0\u00b2\u00d0\u00be\u00d1\u0124", "5506": "\u0120Play", "5507": "\u0120shared", "5508": "\u0120smooth", "5509": "aba", "5510": "\u0120leaves", "5511": "\u00e0\u00ae\u00a9", "5512": "\u0120concent", "5513": "\u0120shift", "5514": "\u0120\u00eb\u0132\u013a", "5515": "\u0120Govern", "5516": "\u0120demonst", "5517": "\u0120butter", "5518": "\u0120\u00ec\u0139\u00ac", "5519": "\u0120satisf", "5520": "\u012a\u00eb\u00ac", "5521": "\u0120recognize", "5522": "\u0120French", "5523": "\u0120volume", "5524": "\u00c3\u00a4nd", "5525": "\u00d1\u0125\u00d0\u00bc", "5526": "\u0120\u00ec\u00a7\u0126", "5527": "\u0120Keep", "5528": "owa", "5529": "ipped", "5530": "\u00d1\u0123\u00d1\u0124\u00d1\u0122", "5531": "\u0120detect", "5532": "\u0120\u00cf\u0125", "5533": "\u0120lift", "5534": "\u0120clothes", "5535": "\u0120Stop", "5536": "\u00c3\u00b5", "5537": "met", "5538": "\u0120clin", "5539": "\u0120arr", "5540": "friend", "5541": "\u0120stuck", "5542": "Ye", "5543": "hand", "5544": "uma", "5545": "\u0120scri", "5546": "\u0120fucking", "5547": "ctors", "5548": "\u00d7\u00aa", "5549": "\u0120joining", "5550": "\u0120cette", "5551": "\u0120\u00d8\u00a3", "5552": "\u0120White", "5553": "\u0120ihr", "5554": "\u00ce\u0143", "5555": "\u00e3\u0123\u0143", "5556": "\u0120included", "5557": "esso", "5558": "\u0120acad", "5559": "bum", "5560": "\u0120sab", "5561": "\u0120\u00d0\u00b4\u00d0\u00bb\u00d1\u0131", "5562": "\u00e8\u00bf\u013b", "5563": "ufact", "5564": "\u0120Republic", "5565": "rim", "5566": "\u0120yellow", "5567": "\u0120limited", "5568": "TER", "5569": "\u0120Ty", "5570": "\u0120notes", "5571": "vest", "5572": "\u00d0\u00b8\u00d0\u00b7", "5573": "aled", "5574": "\u0120phase", "5575": "anda", "5576": "\u0120Mom", "5577": "RI", "5578": "\u0120immer", "5579": "mal", "5580": "\u0120inj", "5581": "\u0120yang", "5582": "udible", "5583": "\u00d0\u00b0\u00d0\u00b3", "5584": "\u0120sett", "5585": "\u0120magic", "5586": "\u0120ensure", "5587": "\u0120spring", "5588": "\u0120shock", "5589": "\u0120wheel", "5590": "\u00d0\u00be\u00d0\u00b3\u00d0\u00b4\u00d0\u00b0", "5591": "\u00e3\u0124\u012a", "5592": "\u0120cancer", "5593": "\u0120root", "5594": "\u00d0\u0132", "5595": "gency", "5596": "\u0120\u00eb\u012f", "5597": "ii", "5598": "\u0120output", "5599": "\u0120commit", "5600": "\u0120workers", "5601": "\u00ec\u0137\u0126\u00ec\u013c\u0136", "5602": "\u0120\u00d1\u0123\u00d0\u00b0\u00d0\u00bc", "5603": "vey", "5604": "\u0120peu", "5605": "\u0120civil", "5606": "isc", "5607": "\u0120brings", "5608": "\u00d1\u0122\u00d0\u00b0\u00d0\u00b2", "5609": "ania", "5610": "\u00c4\u0123", "5611": "craft", "5612": "mbol", "5613": "\u0120intellig", "5614": "bi", "5615": "acing", "5616": "you", "5617": "\u0120becoming", "5618": "\u0120Der", "5619": "ema", "5620": "\u00e5\u00b0\u00b1\u00e6\u013a\u00af", "5621": "\u0120ingred", "5622": "\u0120command", "5623": "\u0120update", "5624": "\u0120prem", "5625": "\u0120opened", "5626": "\u0126\u00a4", "5627": "\u00d0\u00b5\u00d0\u00bd\u00d0\u00b8\u00d0\u00b5", "5628": "\u0120gard", "5629": "\u0120statement", "5630": "\u0120screw", "5631": "\u0120prote", "5632": "\u0120cards", "5633": "\u0120task", "5634": "\u0120evening", "5635": "\u0120stitch", "5636": "inen", "5637": "\u0120Ber", "5638": "mark", "5639": "\u0120Dad", "5640": "\u0120\u00d0\u00b5\u00d1\u0123\u00d1\u0124\u00d1\u012e", "5641": "\u0120\u00d7\u0140\u00d7", "5642": "\u00ec\u0139\u012a", "5643": "\u0120ban", "5644": "\u0120clim", "5645": "\u0120freedom", "5646": "\u0120normally", "5647": "\u00d0\u00b5\u00d1\u0123\u00d1\u012e", "5648": "\u00e5\u00a6", "5649": "\u0120provided", "5650": "\u0120\u00ec\u0140\u0132", "5651": "\u0120\u00ec\u0137\u0126\u00eb\u012d\u012a", "5652": "\u0120Kim", "5653": "ieder", "5654": "\u00ec\u013f\u012e", "5655": "\u0120citiz", "5656": "\u0120bike", "5657": "\u0120bak", "5658": "\u0120noise", "5659": "\u0120climate", "5660": "izes", "5661": "\u00e5\u00be\u012e", "5662": "\u0120increasing", "5663": "\u0120THE", "5664": "\u0120liqu", "5665": "\u0120personally", "5666": "ef", "5667": "resp", "5668": "\u0120legs", "5669": "inder", "5670": "\u0120ped", "5671": "\u0120\u00eb\u00a7\u0130", "5672": "\u0120depend", "5673": "\u0120variety", "5674": "\u0120Israel", "5675": "\u0120wash", "5676": "\u00e5\u0128", "5677": "\u0120quiet", "5678": "\u0120James", "5679": "\u0120Jew", "5680": "\u0120forever", "5681": "\u0120Int", "5682": "\u0120counter", "5683": "urance", "5684": "\u0120Anyway", "5685": "care", "5686": "\u0120Only", "5687": "ci\u00c3\u00b3n", "5688": "adi", "5689": "\u0120Ev", "5690": "\u00eb\u012d\u012a\u00ea\u00b9\u012e", "5691": "\u0120\u00ce\u00b1", "5692": "\u0120slowly", "5693": "\u0120\u00d0\u00be\u00d0\u00b4", "5694": "\u0120noticed", "5695": "ieren", "5696": "\u0120fell", "5697": "\u0120\u00d0\u0133", "5698": "\u0120m\u00c3\u00aame", "5699": "\u0120whenever", "5700": "!)", "5701": "\u0120Hy", "5702": "\u00e5\u00bc", "5703": "ords", "5704": "usion", "5705": "\u0120Star", "5706": "\u0120\u00ed\u013a", "5707": "\u0120Mac", "5708": "\u00e4\u00b8\u012c", "5709": "iven", "5710": "\u0120\u00ec\u012d\u013e", "5711": "\u0120\u00ec\u0139\u0128", "5712": "\u0120Tur", "5713": "\u0120ger", "5714": "ris", "5715": "\u0120vez", "5716": "\u0120\u00d0\u00bb\u00d1\u0130", "5717": "\u0120versus", "5718": "\u00d8\u00a7\u00d8", "5719": "ocolate", "5720": "\u0120plane", "5721": "\u0120zo", "5722": "\u0120suit", "5723": "This", "5724": "\u0120nerv", "5725": "\u0120Acc", "5726": "\u00d1\u0125\u00d0\u00b6", "5727": "\u00ec\u0124\u00ac", "5728": "nh", "5729": "eme", "5730": "\u0120auss", "5731": "\u0120meas", "5732": "\u0120tr\u00c3\u00a8s", "5733": "\u00cf\u012b", "5734": "\u00d1\u0123\u00d0\u00bb\u00d0\u00b8", "5735": "\u0120Art", "5736": "\u0120Second", "5737": "\u00d0\u00be\u00d0\u00bb\u00d1\u012e\u00d0\u00ba\u00d0\u00be", "5738": "cho", "5739": "itect", "5740": "\u00d0\u00b5\u00d1\u0123\u00d1\u0124", "5741": "\u0120boss", "5742": "\u0120income", "5743": "\u0142\u00a4", "5744": "\u0120shad", "5745": "\u0120appropri", "5746": "\u0120Mal", "5747": "opt", "5748": "\u0120artist", "5749": "\u0120plays", "5750": "others", "5751": "\u0120Inter", "5752": "\u0120virus", "5753": "\u0120hung", "5754": "\u0120constant", "5755": "\u0120script", "5756": "\u0120snow", "5757": "ulf", "5758": "ket", "5759": "\u0120devices", "5760": "\u0120metal", "5761": "ights", "5762": "\u00ec\u0126\u00b8", "5763": "\u0120sales", "5764": "\u0120veget", "5765": "\u0120collection", "5766": "\u0120via", "5767": "ker", "5768": "\u0120gotten", "5769": "OW", "5770": "i\u00c3\u00a9n", "5771": "\u0120accur", "5772": "\u0120wave", "5773": "ulty", "5774": "\u0120Air", "5775": "\u0120leading", "5776": "icing", "5777": "\u0120central", "5778": "\u0120Christian", "5779": "fr", "5780": "\u0120Although", "5781": "\u0120songs", "5782": "\u0120fif", "5783": "\u00d0\u00bd\u00d1\u012d\u00d1\u0127", "5784": "\u0120belong", "5785": "ossible", "5786": "\u00ec\u00b0", "5787": "\u0120photos", "5788": "isl", "5789": "\u0120relax", "5790": "sa", "5791": "USIC", "5792": "\u00ea\u00b7", "5793": "\u0120manufact", "5794": "\u0120Twitter", "5795": "\u0120dangerous", "5796": "\u0120hyd", "5797": "lear", "5798": "iant", "5799": "\u0120\u00e2\u0122\u00a6", "5800": "\u0120suddenly", "5801": "\u0120laugh", "5802": "\u0120angle", "5803": "\u0120Got", "5804": "\u0120worried", "5805": "\u00d0\u00be\u00d0\u00b5", "5806": "\u0120pap", "5807": "\u0120Mart", "5808": "eno", "5809": "\u0120battery", "5810": "\u0120\u00d0\u00bf\u00d0\u00be\u00d1\u0123", "5811": "\u0120lights", "5812": "\u0120arms", "5813": "\u0120Abs", "5814": "mes", "5815": "\u00e2\u0122\u0135", "5816": "useum", "5817": "\u0120tea", "5818": "\u0120Mic", "5819": "\u0120former", "5820": "ography", "5821": "\u0120applications", "5822": "\u0120Dire", "5823": "\u00e7\u0126\u00b6", "5824": "\u0120feedback", "5825": "itchen", "5826": "yorum", "5827": "ued", "5828": "igt", "5829": "\u00c6\u00b0\u00e1\u00bb", "5830": "osition", "5831": "\u0120Del", "5832": "\u0120\u00ed\u0137\u013a\u00eb", "5833": "\u0120Back", "5834": "ads", "5835": "\u0120prime", "5836": "\u00ec\u00a3\u00bc", "5837": "\u00ec\u00a3\u0142", "5838": "\u00d7\u0133", "5839": "\u0120mut", "5840": "].", "5841": "\u0120\u00d0\u0139", "5842": "loc", "5843": "kin", "5844": "\u0120expert", "5845": "\u0120alright", "5846": "ungs", "5847": "\u0120supply", "5848": "\u0120leadership", "5849": "\u0120Fra", "5850": "\u0120typically", "5851": "\u0120sel", "5852": "\u0120trees", "5853": "\u012022", "5854": "har", "5855": "\u0120worst", "5856": "\u0120busy", "5857": "anto", "5858": "\u0120Up", "5859": "\u0120Bas", "5860": "\u0120presentation", "5861": "\u0120strange", "5862": "\u0120thin", "5863": "\u00d1\u0124\u00d0\u00b5", "5864": "\u0120vehicle", "5865": "\u0120\u00d0\u00b4\u00d0\u00be", "5866": "cellent", "5867": "70", "5868": "\u0120tired", "5869": "\u0120crisis", "5870": "\u0120tiny", "5871": "asy", "5872": "\u0120ran", "5873": "\u00e9\u0129", "5874": "\u0120forces", "5875": "\u0120\u00d0\u00be\u00d1\u0129", "5876": "\u0120identify", "5877": "\u0120assess", "5878": "\u00d0\u00b8\u00d1\u0124\u00d0\u00b5", "5879": "SE", "5880": "\u0120creative", "5881": "\u00e7\u0141", "5882": "\u0120department", "5883": "\u0120initial", "5884": "\u00e6\u012a\u0133\u00e5\u0122\u0133", "5885": "\u0120Dam", "5886": "akt", "5887": "vere", "5888": "\u0120infect", "5889": "\u0120pump", "5890": "\u00e1\u00ba\u00a1", "5891": "\u0120viel", "5892": "\u0120rare", "5893": "\u0120dot", "5894": "ashion", "5895": "empl", "5896": "\u0120flex", "5897": "\u0120kon", "5898": "\u0120truck", "5899": "\u0120lect", "5900": "\u0120plastic", "5901": "law", "5902": "\u0120likes", "5903": "\u0120rough", "5904": "\u0120MAT", "5905": "\u00ed\u0140\u012a", "5906": "\u0120commer", "5907": "\u0120asse", "5908": "\u0120cake", "5909": "\u0120actions", "5910": "\u0120adm", "5911": "\u0120otherwise", "5912": "\u0120Health", "5913": "\u0120colle", "5914": "\u00e0\u00b9\u0122\u00e0\u00b8", "5915": "\u0120rub", "5916": "\u00e5\u00be\u0139", "5917": "\u00e6\u0136", "5918": "\u0120scr", "5919": "\u0120zum", "5920": "\u0120Him", "5921": "\u0120champ", "5922": "\u0120concerned", "5923": "\u0120500", "5924": "\u0120plate", "5925": "\u0120Out", "5926": "\u0120donc", "5927": "\u0120equipment", "5928": "\u0120taught", "5929": "lled", "5930": "\u0120\u00ed\u013b", "5931": "iva", "5932": "\u0120motor", "5933": "\u00c2\u00bb", "5934": "\u0120guide", "5935": "\u00e5\u012b", "5936": "\u0120stopped", "5937": "\u0120rat", "5938": "\u0120labor", "5939": "\u0120aim", "5940": "\u0120prepare", "5941": "\u0120\u00d1\u012a", "5942": "\u0120shooting", "5943": "anned", "5944": "cript", "5945": "\u0120enemy", "5946": "\u0120depends", "5947": "\u0120nav", "5948": "\u0120ber", "5949": "\u0120lands", "5950": "\u0120univers", "5951": "iu", "5952": "\u0120factor", "5953": "oking", "5954": "\u0120carbon", "5955": "but", "5956": "\u0120Love", "5957": "eld", "5958": "\u0120\u00ce\u00b5", "5959": "\u0120ga", "5960": "\u0120\u00c3\u00a9s", "5961": "\u0120bread", "5962": "\u0120volt", "5963": "\u00ed\u012c", "5964": "\u0120waste", "5965": "\u0120keeps", "5966": "\u00e6\u012b\u0122", "5967": "\u0120stor", "5968": "\u0120honor", "5969": "\u0120unless", "5970": "\u0120colum", "5971": "\u0120\u00eb\u012e\u0122", "5972": "\u0120plants", "5973": "Yeah", "5974": "\u0120includes", "5975": "\u00e4\u00b8\u0143", "5976": "\u0120ox", "5977": "\u0120peut", "5978": "\u00eb\u00a7\u012e", "5979": "\u00ec\u0125\u0123", "5980": "istry", "5981": "\u00e0\u00b8\u00b1", "5982": "\u0120Department", "5983": "anta", "5984": "\u0120finger", "5985": "\u0120stretch", "5986": "\u0120symbol", "5987": "\u0120neighbor", "5988": "\u00e6\u00ac", "5989": "\u00ea\u00b0\u0126", "5990": "~~", "5991": "\u0120\u00d1\u0124\u00d1\u012d", "5992": "\u0120Aber", "5993": "kes", "5994": "\u0120massive", "5995": "\u0120CH", "5996": "\u0120Sal", "5997": "\u00d7\u0142", "5998": "\u00e3\u0124\u0134", "5999": "\u0120dynam", "6000": "ache", "6001": "\u0120Pre", "6002": "\u0120monitor", "6003": "ented", "6004": "EO", "6005": "\u0120raised", "6006": "istics", "6007": "\u00da\u00a9", "6008": "\u0120vou", "6009": "iten", "6010": "\u00a1\u00b0", "6011": "\u0120businesses", "6012": "\u0120earn", "6013": "\u0120mobile", "6014": "idade", "6015": "\u0120habe", "6016": "yr", "6017": "lict", "6018": "\u0120conduct", "6019": "\u0120federal", "6020": "\u0120wo", "6021": "bu", "6022": "\u0120none", "6023": "\u0120teachers", "6024": "\u0120\u00d8\u00a7\u00d9\u0126\u00d8", "6025": "\u00e9\u0123\u0135", "6026": "idents", "6027": "\u00d8\u00a7\u00d9\u0126", "6028": "\u0120trend", "6029": "\u00d0\u00b5\u00d0\u00b6", "6030": "\u0120album", "6031": "\u0120mich", "6032": "based", "6033": "\u00e0\u00b8\u00b5", "6034": "\u0120transition", "6035": "\u0120\u00d0\u00bd\u00d0\u00be", "6036": "\u00c3\u00b5es", "6037": "host", "6038": "edy", "6039": "\u0120Prof", "6040": "pan", "6041": "ijn", "6042": "\u0120capacity", "6043": "undo", "6044": "\u0120\u00d7\u0133\u00d7", "6045": "\u0120breath", "6046": "\u0120\u00d0\u00bc\u00d0\u00b5\u00d0\u00bd", "6047": "\u0120m\u00c3\u00bc", "6048": "\u00ed\u013b", "6049": "\u0120Aut", "6050": "hington", "6051": "\u0120nor", "6052": "\u0120gain", "6053": "point", "6054": "Yes", "6055": "\u0120\u00d8\u00aa", "6056": "\u0120Na", "6057": "\u00c3\u00a5r", "6058": "\u0120i\u00c3\u00a7", "6059": "\u0120Mary", "6060": "\u0120spin", "6061": "\u0120anti", "6062": "\u00e5\u0132\u00a7", "6063": "\u0120somehow", "6064": "\u0120laws", "6065": "\u0120moments", "6066": "\u0120gre", "6067": "\u0120moves", "6068": "\u0120Would", "6069": "\u0120predict", "6070": "\u0120vra", "6071": "\u01202019", "6072": "\u00b6\u0126", "6073": "\u0120fundament", "6074": "25", "6075": "\u0120pure", "6076": "\u0120wow", "6077": "\u0120island", "6078": "\u0120investment", "6079": "\u0120bath", "6080": "\u0120Ya", "6081": "\u0120harder", "6082": "\u0120tips", "6083": "\u00e5\u0139", "6084": "\u0120electron", "6085": "\u0120Bob", "6086": "\u0120bond", "6087": "odies", "6088": "\u0120Aug", "6089": "\u0120gibt", "6090": "\u0120chair", "6091": "\u0120twice", "6092": "wood", "6093": "\u0120clar", "6094": "\u0120mask", "6095": "\u0120honestly", "6096": "\u01202018", "6097": "ties", "6098": "',", "6099": "\u0120pens", "6100": "\u0120surprised", "6101": "\u0120communication", "6102": "\u00e3\u0123\u00a3\u00e3\u0123\u00a6", "6103": "\u0120spr", "6104": "\u0120whose", "6105": "\u0120stars", "6106": "\u00d7\u0132\u00d7", "6107": "\u0120\u00e2\u0122\u012d", "6108": "\u0120properly", "6109": "\u0120grew", "6110": "osing", "6111": "\u0120divers", "6112": "AD", "6113": "\u0120empt", "6114": "\u0120expression", "6115": "\u00e1\u00ba\u00bf", "6116": "\u0120Pal", "6117": "\u00e3\u0123\u012c", "6118": "\u0120justice", "6119": "\u0120pair", "6120": "wo", "6121": "\u0120seat", "6122": "orter", "6123": "\u0120links", "6124": "\u0120Mer", "6125": "\u0120rend", "6126": "\u00d0\u00bd\u00d0\u00be\u00d0\u00b5", "6127": "upid", "6128": "\u0120Hel", "6129": "\u0120March", "6130": "\u0120Lo", "6131": "\u00d1\u0123\u00d1\u012e", "6132": "\u0120hasn", "6133": "\u0120evalu", "6134": "\u00e3\u0123\u0131", "6135": "\u00e5\u00a4\u00a9", "6136": "ilos", "6137": "\u0120funding", "6138": "\u0120ven", "6139": "uan", "6140": "\u0120Master", "6141": "\u0120Ol", "6142": "\u0120Fre", "6143": "\u0120yap", "6144": "\u0120Sir", "6145": "sch", "6146": "\u0120mistake", "6147": "aman", "6148": "\u0120dinner", "6149": "\u0120Washington", "6150": "\u0120organizations", "6151": "\u0120\u00d0\u00b6\u00d0\u00b5", "6152": "aving", "6153": "\u0120v\u00c3\u0143", "6154": "\u0120birthday", "6155": "\u0120bear", "6156": "\u0120\u00d9\u0123", "6157": "\u0120afford", "6158": "\u0120reven", "6159": "\u0120relationships", "6160": "rough", "6161": "\u0120Time", "6162": "\u0120tag", "6163": "\u0120Sun", "6164": "uary", "6165": "\u0120Po", "6166": "car", "6167": "abilities", "6168": "\u0120prison", "6169": "\u0120lic", "6170": "\u00ec\u0142\u0137", "6171": "idden", "6172": "\u0120species", "6173": "\u00e9\u00bb", "6174": "\u0120firm", "6175": "\u0120score", "6176": "\u0120dit", "6177": "\u0120spect", "6178": "\u0120pel", "6179": "\u0120complicated", "6180": "\u00e6\u00a8\u00a3", "6181": "\u0120rank", "6182": "\u0120opposite", "6183": "\u0120picked", "6184": "\u0120\u00d0\u00ba\u00d0\u00be\u00d0\u00bd", "6185": "eler", "6186": "\u0120mig", "6187": "\u0120Sl", "6188": "\u0120Net", "6189": "\u0120neck", "6190": "\u0120France", "6191": "\u0120technical", "6192": "\u00e0\u00b8\u00a1", "6193": "\u0120miles", "6194": "\u0120primary", "6195": "\u0120sein", "6196": "ses", "6197": "\u0120laughs", "6198": "bra", "6199": "\u00c5\u013dci", "6200": "riage", "6201": "\u0120nic", "6202": "eters", "6203": "\u0120\u00c3\u00aa", "6204": "ologies", "6205": "\u0120IS", "6206": "rad", "6207": "udo", "6208": "\u00c4\u00b1nd", "6209": "mar", "6210": "\u0120exch", "6211": "\u0120competition", "6212": "\u0120aussi", "6213": "\u0120Serv", "6214": "\u0120rent", "6215": "\u0120chocolate", "6216": "\u0120wieder", "6217": "\u0120nearly", "6218": "\u0120speech", "6219": "\u0120unc", "6220": "\u0120param", "6221": "\u0120British", "6222": "\u0120remain", "6223": "\u00e0\u00b8\u0123", "6224": "urt", "6225": "\u0120\u00d8\u00b9", "6226": "\u0120crack", "6227": "ails", "6228": "\u0120promise", "6229": "\u0120paying", "6230": "i\u00c3\u0141", "6231": "\u0120adapt", "6232": "\u00d0\u00b0\u00d0\u00bb\u00d0\u00b0", "6233": "\u0120movies", "6234": "\u0120wire", "6235": "\u0141\u00ac", "6236": "\u00e6\u013e\u0125", "6237": "\u0120terrible", "6238": "\u0120s\u00c3\u00b3", "6239": "\u0120perfectly", "6240": "\u00e5\u0133\u00a2", "6241": "ordin", "6242": "\u0120j\u00c3\u00a1", "6243": "\u0120impossible", "6244": "\u0120Three", "6245": "\u0120nh", "6246": "\u0120turning", "6247": "rum", "6248": "\u0120Bel", "6249": "igg", "6250": "\u0120responsible", "6251": "\u00d0\u00b8\u00d0\u00b9", "6252": "\u0120incredibly", "6253": "wi", "6254": "iano", "6255": "\u0120humans", "6256": "\u0120\u00c3\u0129", "6257": "\u0120settings", "6258": "\u0120joy", "6259": "oot", "6260": "\u0120dealing", "6261": "illed", "6262": "\u0120surround", "6263": "\u0120followed", "6264": "\u0120possibly", "6265": "\u0120initi", "6266": "sten", "6267": "\u0120pros", "6268": "\u0120candid", "6269": "\u0120assign", "6270": "\u0120violence", "6271": "Well", "6272": "\u0120rise", "6273": "PS", "6274": "\u0120tamb\u00c3\u00a9m", "6275": "\u0120\u00eb\u0135\u00a4", "6276": "iance", "6277": "yan", "6278": "\u0120audio", "6279": "\u0120Bet", "6280": "\u0120Americans", "6281": "\u0120Ass", "6282": "ischen", "6283": "\u00ec\u0140\u0127", "6284": "\u0120ultimately", "6285": "\u0120polic", "6286": "\u0120majority", "6287": "\u00e9\u0122\u013b\u00e5\u0122\u012d", "6288": "\u0120Finally", "6289": "erap", "6290": "\u0120guard", "6291": "\u0120MATT", "6292": "\u0120brown", "6293": "\u00d0\u00bc\u00d0\u00b8", "6294": "\u0120cha", "6295": "\u0120Holy", "6296": "\u0120nervous", "6297": "ipping", "6298": "\u00c4\u013bd", "6299": "\u0120Sa", "6300": "\u0135\u013e\u00eb", "6301": "\u00b6\u0122", "6302": "lie", "6303": "\u00e7\u013e\u0141", "6304": "\u0120nuc", "6305": "\u0120Apr", "6306": "\u00e9\u013d", "6307": "\u0120Korea", "6308": "ego", "6309": "\u0120Canada", "6310": "\u0120k\u00c3\u00b6nnen", "6311": "\u0120compar", "6312": "\u0120ganz", "6313": "\u0120Mais", "6314": "\u0120theme", "6315": "\u0120ki", "6316": "\u0120drawing", "6317": "azon", "6318": "\u0120Off", "6319": "tt", "6320": "\u0120Wind", "6321": "\u0120todos", "6322": "\u0120obvious", "6323": "\u00d0\u00bd\u00d0\u00b0\u00d1\u0131", "6324": "IM", "6325": "\u0120\u00d0\u0142", "6326": "well", "6327": "\u0120blow", "6328": "\u0120hook", "6329": "\u0120circle", "6330": "\u0120\u00eb\u00b3\u00b4", "6331": "\u0120architect", "6332": "\u0120Kr", "6333": "\u0120c\u00c3\u00b3", "6334": "\u0120protection", "6335": "ega", "6336": "\u00e5\u0129", "6337": "\u0120watched", "6338": "\u0120answers", "6339": "\u0120diet", "6340": "ivo", "6341": "\u0120powder", "6342": "\u0120yours", "6343": "\u0120highest", "6344": "\u00e7\u0124\u00ba", "6345": "FF", "6346": "\u00e5\u00ba", "6347": "\u0120boys", "6348": "\u00c3\u00b6yle", "6349": "\u0120lunch", "6350": "\u00e8\u00ac\u013f", "6351": "\u0120II", "6352": "\u0120sets", "6353": "\u0120mole", "6354": "\u00db\u0123", "6355": "\u0120winter", "6356": "\u0120lucky", "6357": "\u0120responsibility", "6358": "\u0120signal", "6359": "\u0120wondering", "6360": "\u0120ax", "6361": "\u0120cooking", "6362": "\u00d0\u00be\u00d0\u00b2\u00d0\u00be\u00d1\u0122", "6363": "leg", "6364": "\u0120\u00d0\u00bf\u00d0\u00be\u00d1\u0124", "6365": "\u0120surprise", "6366": "\u0120democr", "6367": "\u0120loop", "6368": "\u0120jag", "6369": "\u0120curious", "6370": "\u0120marketing", "6371": "\u00d0\u013f", "6372": "aron", "6373": "\u0120Apple", "6374": "\u0120virtual", "6375": "\u0120198", "6376": "noon", "6377": "\u0120Met", "6378": "\u00d0\u00be\u00d1\u0123\u00d1\u0124\u00d0\u00be", "6379": "\u00d0\u00be\u00d0\u00b1\u00d1\u012d", "6380": "itu", "6381": "\u0120Aw", "6382": "\u0120buying", "6383": "\u0120restaurant", "6384": "\u0120Bud", "6385": "\u0120doubt", "6386": "\u0120grant", "6387": "\u0120verd", "6388": "\u0120cash", "6389": "\u0120faculty", "6390": "That", "6391": "\u0120Ein", "6392": "\u00e5\u00a4\u013c", "6393": "\u0120wed", "6394": "itness", "6395": "\u0120Mag", "6396": "nel", "6397": "\u0120narr", "6398": "\u0120accident", "6399": "\u0120medium", "6400": "ements", "6401": "\u0120crow", "6402": "night", "6403": "\u00ec\u013f\u00bc", "6404": "\u00e4\u00b9\u0141", "6405": "\u0120library", "6406": "\u00d0\u00b0\u00d1\u0130\u00d1\u0124", "6407": "\u0120tambi\u00c3\u00a9n", "6408": "\u0120reference", "6409": "\u0120fourth", "6410": "house", "6411": "vention", "6412": "\u0120filled", "6413": "\u0120Cour", "6414": "ibr", "6415": "\u0120ng", "6416": "\u0120developing", "6417": "\u0120provides", "6418": "\u0120poll", "6419": "\u0120traffic", "6420": "arently", "6421": "\u00e0\u00ae\u0141", "6422": "\u0120forms", "6423": "\u0120client", "6424": "\u0120gentle", "6425": "\u0120muss", "6426": "\u0120Congress", "6427": "\u0120Indian", "6428": "cean", "6429": "\u0120pil", "6430": "\u0120czy", "6431": "stood", "6432": "uty", "6433": "\u0120n\u00c3\u00a4", "6434": "\u0120spending", "6435": "\u0120construction", "6436": "inaudible", "6437": "\u0120\u00eb\u00a7\u012a", "6438": "\u012a\u00eb\u00ac\u00b4", "6439": "\u0120\u00ec\u0125\u013f", "6440": "oma", "6441": "osen", "6442": "ago", "6443": "\u0120largest", "6444": "\u00e3\u0127\u012d\u00e3\u0127\u012d", "6445": "\u0120universe", "6446": "bes", "6447": "osa", "6448": "\u0120\u00d0\u00b5\u00d0\u00b3\u00d0\u00be", "6449": "\u0120dude", "6450": "\u0120MAR", "6451": "\u0120indeed", "6452": "\u00ce\u00b5\u00ce\u00b9", "6453": "\u0120managed", "6454": "\u0120Should", "6455": "So", "6456": "\u0120applied", "6457": "\u0120fairly", "6458": "\u0120Den", "6459": "\u0120analy", "6460": "\u0120constantly", "6461": "\u00d1\u0123\u00d0\u00bf", "6462": "How", "6463": "\u0120Say", "6464": "encies", "6465": "\u0120PC", "6466": "\u0120eggs", "6467": "\u00e0\u00ae\u00b0", "6468": "\u0120eth", "6469": "\u0120Ent\u00c3\u00a3o", "6470": "inar", "6471": "iot", "6472": "\u0120cz", "6473": "\u0120European", "6474": "\u00e3\u0123\u012a", "6475": "\u0120AM", "6476": "\u0120c\u00c3\u00a1", "6477": "\u0120radio", "6478": "\u00a7\u012e", "6479": "\u0120hide", "6480": "\u00e4\u00bb\u012c", "6481": "\u0120Start", "6482": "\u0120club", "6483": "\u0120Hope", "6484": "\u0120efforts", "6485": "lusion", "6486": "\u0120cities", "6487": "hone", "6488": "\u0120reached", "6489": "\u0120guid", "6490": "roid", "6491": "\u0120harm", "6492": "\u0120cutting", "6493": "\u0120bul", "6494": "18", "6495": "iest", "6496": "\u0120Mex", "6497": "\u0120iron", "6498": "\u00e7\u0141\u00a5", "6499": "\u0120afternoon", "6500": "\u0120hall", "6501": "\u0120przy", "6502": "\u0120gosh", "6503": "\u0120influence", "6504": "\u0120\u00d0\u00b2\u00d0\u00b8\u00d0\u00b4", "6505": "\u0120increased", "6506": "\u0120Minister", "6507": "\u0120disci", "6508": "\u0120Peter", "6509": "\u0120vert", "6510": "\u0120menu", "6511": "\u0120selling", "6512": "urally", "6513": "\u0120quote", "6514": "\u0120\u00c2\u00a1", "6515": "\u0120continues", "6516": "mpre", "6517": "\u0120\u00c5\u0141ey", "6518": "itution", "6519": "\u0120\u00d0\u00bd\u00d0\u00b0\u00d1\u0123", "6520": "cles", "6521": "\u0120German", "6522": "czy", "6523": "\u0120\u00d0\u00a3", "6524": "Be", "6525": "\u0120kitchen", "6526": "\u0120Try", "6527": "ipe", "6528": "\u0120icon", "6529": "arp", "6530": "\u0120providing", "6531": "\u0120Trans", "6532": "\u0120technique", "6533": "\u0120h\u00c3\u00a4r", "6534": "\u0120infrast", "6535": "\u0120susp", "6536": "\u00c3\u00bcck", "6537": "icip", "6538": "\u0120\u00d0\u0137", "6539": "\u0120cin", "6540": "\u00ec\u0138\u00b4\u00eb", "6541": "\u0120prz", "6542": "\u0120component", "6543": "\u0120bye", "6544": "\u0120Bible", "6545": "izer", "6546": "Ch", "6547": "\u0120solutions", "6548": "\u0120accompl", "6549": "\u01202016", "6550": "IE", "6551": "\u0120Ta", "6552": "\u0120assume", "6553": "\u0120liquid", "6554": "\u0120\u00eb\u00a8\u00b9", "6555": "\u0120quarter", "6556": "\u0120female", "6557": "\u0120Think", "6558": "\u0120status", "6559": "itute", "6560": "\u0120coach", "6561": "\u0120rein", "6562": "\u0120combination", "6563": "\u00e8\u00b7", "6564": "\u0120Ter", "6565": "\u0120objects", "6566": "\u0120district", "6567": "\u0120makeup", "6568": "\u0120murder", "6569": "was", "6570": "fen", "6571": "\u0120bowl", "6572": "\u0120published", "6573": "\u0120sports", "6574": "\u00e3\u0123\u00a1", "6575": "\u0120identity", "6576": "\u0120seemed", "6577": "\u0120acting", "6578": "\u00d0\u00bb\u00d1\u0130", "6579": "rix", "6580": "\u0120upload", "6581": "\u0120hast", "6582": "\u0120boat", "6583": "\u0120Mod", "6584": "rio", "6585": "\u0120=", "6586": "\u0120cycle", "6587": "\u00af\u00b8", "6588": "\u0120loud", "6589": "usted", "6590": "coming", "6591": "\u01202017", "6592": "\u0120ont", "6593": "\u0120legisl", "6594": "\u0120struct", "6595": "\u0120Something", "6596": "\u0120conflict", "6597": "\u0120upper", "6598": "\u0120manager", "6599": "\u0120mort", "6600": "\u0120fra", "6601": "\u0120\u00c4\u00b0", "6602": "\u0120Mike", "6603": "\u0120Work", "6604": "\u0120n\u00c3\u00b3", "6605": "phere", "6606": "\u0120\u00ec\u0124\u00ac\u00eb", "6607": "\u0120Land", "6608": "\u0120filter", "6609": "\u0120promot", "6610": "\u00e6\u00b0", "6611": "\u00e6\u013b\u0124", "6612": "\u0137\u00bc", "6613": "\u0120recording", "6614": "\u00d7\u013f", "6615": "\u0120associated", "6616": "\u0120fuel", "6617": "under", "6618": "\u0120election", "6619": "\u0120employees", "6620": "\u0120Comp", "6621": "\u00d1\u0122\u00d1\u0125\u00d0\u00b3", "6622": "\u0120Wo", "6623": "rol", "6624": "\u0120saved", "6625": "\u0120Hon", "6626": "\u0120Vi", "6627": "\u00e5\u012a\u0128", "6628": "aca", "6629": "pret", "6630": "\u0120wet", "6631": "\u0120stupid", "6632": "\u0120lad", "6633": "\u0120fest", "6634": "\u0120wake", "6635": "\u0120\u00d0\u00b8\u00d0\u00bd", "6636": "\u0120greatest", "6637": "\u0120Jim", "6638": "\u0120seriously", "6639": "\u0120\u00ec\u00b9", "6640": "\u0120feelings", "6641": "\u0120300", "6642": "iation", "6643": "\u0120beauty", "6644": "\u0120\u00ec\u0140\u013a", "6645": "\u0120san", "6646": "\u0135\u0142", "6647": "\u0120-(", "6648": "\u0120conscious", "6649": "\u0120\u00d0\u00b4\u00d0\u00b5\u00d0\u00bb", "6650": "bye", "6651": "\u00e7\u013b", "6652": "Man", "6653": "\u0120lets", "6654": "\u0120shoes", "6655": "yd", "6656": "\u00e4\u00b9\u012a", "6657": "\u0120disappe", "6658": "\u0120County", "6659": "\u0120Scott", "6660": "\u0120butt", "6661": "\u0120aqu\u00c3\u0143", "6662": "\u0120config", "6663": "respond", "6664": "LAUGH", "6665": "\u00a9\u00eb\u012d\u012a\u00eb\u012d\u00a4", "6666": "\u0120divided", "6667": "\u0120acqu", "6668": "\u0120zone", "6669": "\u0120komm", "6670": "a\u00c3\u00a7\u00c3\u00a3o", "6671": "\u00ec\u00a7\u013e", "6672": "cut", "6673": "\u012023", "6674": "\u0120maximum", "6675": "rog", "6676": "\u0120runs", "6677": "\u0120components", "6678": "\u0120arrived", "6679": "\u0120confident", "6680": "\u00d1\u0122\u00d0\u00be\u00d0\u00b2", "6681": "\u0120height", "6682": "\u0120proced", "6683": "EM", "6684": "\u0120\u00d0\u0143\u00d1\u0124\u00d0\u00be", "6685": "\u0120Men", "6686": "\u0120talks", "6687": "\u0120confidence", "6688": "\u0120Chris", "6689": "\u0120leads", "6690": "\u0120nose", "6691": "fall", "6692": "bb", "6693": "\u0120Nothing", "6694": "iser", "6695": "\u0120independent", "6696": "\u0120minor", "6697": "\u0120sym", "6698": "len", "6699": "cience", "6700": "\u0120fashion", "6701": "\u0120sexual", "6702": "\u0120bun", "6703": "here", "6704": "\u0120soil", "6705": "\u0120diese", "6706": "\u0120shap", "6707": "\u0120empty", "6708": "\u0120journal", "6709": "agon", "6710": "\u0120Their", "6711": "\u0120weekend", "6712": "\u00c3\u0143t", "6713": "\u0120error", "6714": "\u0120nar", "6715": "\u00c3\u00b8", "6716": "\u00e8\u00a9", "6717": "ancy", "6718": "\u0120\u00ec\u0137\u012c", "6719": "\u0120forest", "6720": "\u0120hacer", "6721": "\u0120missed", "6722": "\u00e3\u0123\u0137", "6723": "\u00e5\u0131\u00af\u00e4\u00bb\u00a5", "6724": "\u0120evil", "6725": "\u0120storage", "6726": "\u0120singing", "6727": "inha", "6728": "\u0120knock", "6729": "\u0120impress", "6730": "\u0120\u00d0\u00be\u00d1\u0129\u00d0\u00b5\u00d0\u00bd\u00d1\u012e", "6731": "\u0120Gold", "6732": "\u0120Sur", "6733": "\u0120Port", "6734": "\u00e5\u0130\u00bb", "6735": "\u0120Lond", "6736": "\u0120fazer", "6737": "oty", "6738": "oto", "6739": "\u0120anx", "6740": "\u0120William", "6741": "\u0120existing", "6742": "place", "6743": "\u0120CD", "6744": "\u00ce\u00b3", "6745": "\u0120College", "6746": "lor", "6747": "\u0120East", "6748": "sen", "6749": "fach", "6750": "oft", "6751": "\u0120experienced", "6752": "\u0120loves", "6753": "imm", "6754": "\u0120poly", "6755": "\u0120esse", "6756": "\u00ec\u00a4", "6757": "\u0120Grand", "6758": "\u00e8\u00a7", "6759": "cher", "6760": "\u0120victim", "6761": "\u0120Ges", "6762": "\u00d0\u00bb\u00d1\u012e", "6763": "vision", "6764": "\u0120tall", "6765": "\u0120lens", "6766": "\u0120\u00d0\u00b7\u00d0\u00bd\u00d0\u00b0", "6767": "\u0120Both", "6768": "\u0120\u00ec\u00b2", "6769": "\u0120sustain", "6770": "\u0120argument", "6771": "\u0120factors", "6772": "\u0120automatically", "6773": "\u0120fruit", "6774": "\u0120liber", "6775": "\u0120ale", "6776": "\u0120Press", "6777": "\u0120Ba", "6778": "\u0120\u00d0\u00b3\u00d0\u00be", "6779": "\u0120hundreds", "6780": "that", "6781": "\u0120Rich", "6782": "\u0120recipe", "6783": "\u0120IT", "6784": "\u00e8\u0129", "6785": "\u00e1\u00ba\u00a5", "6786": "\u0120describe", "6787": "\u0120driver", "6788": "\u0120Oct", "6789": "\u0120Mat", "6790": "\u00d0\u00b4\u00d0\u00b5", "6791": "\u0120meal", "6792": "\u0120latest", "6793": "\u0120therap", "6794": "\u0120compare", "6795": "\u0120Amazon", "6796": "\u0120\u00ec\u00a2\u0122", "6797": "\u0120Russia", "6798": "\u0120string", "6799": "\u0120ka", "6800": "\u0120Commun", "6801": "\u0120dia", "6802": "Is", "6803": "\u0120millions", "6804": "\u0120corpor", "6805": "\u0120correspond", "6806": "\u0120fixed", "6807": "\u0120Joe", "6808": "\u00d9\u0130", "6809": "\u0120views", "6810": "\u0120river", "6811": "\u0120studio", "6812": "igger", "6813": "\u0120flavor", "6814": "\u0120presence", "6815": "\u0120units", "6816": "\u0120saving", "6817": "avour", "6818": "\u0120pesso", "6819": "orith", "6820": "\u0120hers", "6821": "\u0120Nat", "6822": "asion", "6823": "\u0120Frank", "6824": "\u00d0\u00be\u00d1\u012a", "6825": "\u00c5\u0124y", "6826": "\u00ed\u0126", "6827": "\u0120einem", "6828": "\u0120functions", "6829": "uman", "6830": "\u0120north", "6831": "\u0120\u00ec\u0142\u0126", "6832": "\u0120horse", "6833": "vid", "6834": "\u0120pleasure", "6835": "\u00d0\u00b0\u00d1\u012a", "6836": "\u00c3\u00a9es", "6837": "inda", "6838": "\u0120tail", "6839": "\u0120explore", "6840": "ST", "6841": "\u0120commercial", "6842": "\u0120During", "6843": "arl", "6844": "]:", "6845": "fit", "6846": "\u0120rates", "6847": "\u00e6\u00b3", "6848": "MUSIC", "6849": "\u0120housing", "6850": "\u0120einer", "6851": "\u0120situations", "6852": "\u00e6\u012d", "6853": "\u0120decre", "6854": "\u0120appropriate", "6855": "\u00d0\u00b5\u00d0\u00bd\u00d0\u00bd\u00d0\u00be", "6856": "%.", "6857": "\u0120bac", "6858": "\u0120wat", "6859": "ensity", "6860": "\u00c3\u00a4h", "6861": "known", "6862": "itz", "6863": "\u0120emotional", "6864": "ervation", "6865": "\u0120blind", "6866": "16", "6867": "\u00ed\u0125", "6868": "\u00e5\u00a4\u00a7\u00e5\u00ae\u00b6", "6869": "\u0120joined", "6870": "\u0120located", "6871": "\u0120\u00d1\u0123\u00d0\u00bc", "6872": "adas", "6873": "berg", "6874": "\u0120dess", "6875": "\u0120dear", "6876": "eden", "6877": "cos", "6878": "\u0120adopt", "6879": "100", "6880": "owe", "6881": "\u0120Check", "6882": "ismo", "6883": "\u0120simpl", "6884": "\u0120angry", "6885": "\u0120\u00d0\u00bc\u00d0\u00b5\u00d0\u00bd\u00d1\u0131", "6886": "\u0120Cam", "6887": "\u0120pad", "6888": "\u0120attend", "6889": "\u0120sample", "6890": "\u00e6\u0139\u00a5", "6891": "\u0120\u00ec\u013d", "6892": "\u0120IN", "6893": "ulous", "6894": "\u0120Sar", "6895": "\u0120Show", "6896": "\u0120infrastructure", "6897": "\u0120August", "6898": "\u0120lesson", "6899": "\u0120niet", "6900": "\u00e6\u0130", "6901": "\u0120foi", "6902": "\u0120broke", "6903": "tr", "6904": "\u00e7\u0137", "6905": "\u012045", "6906": "\u0120gew", "6907": "\u00d1\u0125\u00d0\u00bf", "6908": "ati", "6909": "\u0120maintain", "6910": "\u0120artists", "6911": "inger", "6912": "\u00e6\u013f\u00a5", "6913": "erved", "6914": "IA", "6915": "\u0120equals", "6916": "\u0120operation", "6917": "illy", "6918": "\u0120\u00eb\u0124\u00b4", "6919": "\u0120crowd", "6920": "\u0120internal", "6921": "\u0120tests", "6922": "\u0120Rock", "6923": "\u0120Cons", "6924": "\u0120\u00eb\u0126\u012a\u00eb\u00ac\u00b4", "6925": "war", "6926": "\u0120sou", "6927": "\u0120chart", "6928": "\u0120June", "6929": "\u0120April", "6930": "gent", "6931": "\u0120vent", "6932": "\u0120quand", "6933": "\u0120Korean", "6934": "imo", "6935": "\u00e7\u012b", "6936": "iders", "6937": "\u0120mountain", "6938": "\u00d1\u0123\u00d1\u0124\u00d0\u00b0\u00d0\u00b2", "6939": "\u00e6\u013e\u012a", "6940": "ijk", "6941": "\u0120discovered", "6942": "\u0120Sund", "6943": "\u0120Sil", "6944": "\u0120solo", "6945": "\u00c2\u00b4", "6946": "\u0120schol", "6947": "\u0120Each", "6948": "\u00e7\u00b5", "6949": "\u0120bare", "6950": "\u0120\u00ed\u012e", "6951": "\u0120v\u00c3\u0143de", "6952": "\u0120ingredients", "6953": "\u0120Its", "6954": "\u013f\u00bc\u00ea\u00b3\u0142", "6955": "\u0120\u00ec\u012c", "6956": "\u00cf\u012f", "6957": "\u0120Lee", "6958": "\u0120scary", "6959": "\u0120princip", "6960": "\u0120spiritual", "6961": "\u00ec\u0127", "6962": "\u0120Hold", "6963": "\u00e6\u00b2\u0134\u00e6\u013e\u012b", "6964": "\u0120define", "6965": "\u0120Les", "6966": "\u0120Nor", "6967": "\u0120End", "6968": "\u0120blog", "6969": "\u0120Green", "6970": "\u00d0\u00b0\u00d0\u00b5\u00d1\u0124\u00d1\u0123\u00d1\u0131", "6971": "part", "6972": "eles", "6973": "\u00e4\u00ba\u012d", "6974": "\u0120Under", "6975": "\u0120parte", "6976": "\u012035", "6977": "\u0120sector", "6978": "\u0120Sept", "6979": "\u0120auth", "6980": "\u00e0\u00ae\u00ae", "6981": "omin", "6982": "\u0120clients", "6983": "\u0120ci", "6984": "\u0120Friday", "6985": "eras", "6986": "\u0120twe", "6987": "ulated", "6988": "\u0120cultural", "6989": "\u0120\u00d1\u0123\u00d0\u00b2\u00d0\u00be", "6990": "\u0120\u00eb\u012f\u0136", "6991": "\u0120\u00c3\u00ba", "6992": "\u0120parce", "6993": "\u00e0\u00ae\u00b2", "6994": "\u0120tradition", "6995": "\u0120judge", "6996": "\u0120General", "6997": "\u0120determine", "6998": "\u0120Isn", "6999": "\u0120PL", "7000": "neath", "7001": "\u0120matters", "7002": "\u00ed\u0137\u00b4\u00ec", "7003": "!]", "7004": "\u00d0\u00b0\u00d1\u0127", "7005": "\u0120pool", "7006": "\u0120variable", "7007": "\u0120vaccine", "7008": "\u0120caused", "7009": "\u0120west", "7010": "\u0120Yep", "7011": "fast", "7012": "\u0120philos", "7013": "hora", "7014": "\u0120continued", "7015": "\u0120unfortunately", "7016": "\u00e3\u0123\u012f", "7017": "\u00e6\u0137", "7018": "\u0120flight", "7019": "\u0120wrap", "7020": "\u0120huh", "7021": "\u0120Absolutely", "7022": "\u0120pink", "7023": "\u0120remains", "7024": "\u0120n\u00c3\u00a9", "7025": "\u0120fle", "7026": "\u0120Sol", "7027": "\u0120losing", "7028": "\u0120algorith", "7029": "\u0120requires", "7030": "\u0120foundation", "7031": "\u0120Bur", "7032": "\u0120profession", "7033": "\u0120Mid", "7034": "\u0120\u00eb\u0143\u0132", "7035": "can", "7036": "\u0120Mil", "7037": "\u0120younger", "7038": "\u0120appears", "7039": "term", "7040": "\u00ed\u0137\u013a\u00ea\u00b3\u0142", "7041": "acle", "7042": "\u0120London", "7043": "\u0120engineering", "7044": "\u00e0\u00b8\u00a2", "7045": "\u0120advent", "7046": "\u00ec\u0126\u00b8\u00ec\u013c\u0136", "7047": "\u0120\u00ea\u00b8\u00b0", "7048": "\u0120Maj", "7049": "\u00d1\u0122\u00d0\u00b5\u00d0\u00bc", "7050": "ingu", "7051": "\u0120UK", "7052": "uro", "7053": "spe", "7054": "\u0120tent", "7055": "\u0120reported", "7056": "\u0120AL", "7057": "Hey", "7058": "\u0120\u00eb\u00a7\u0132", "7059": "\u0120dent", "7060": "\u0120Australia", "7061": "\u0120January", "7062": "\u00b3\u00b4", "7063": "agues", "7064": "arsh", "7065": "rig", "7066": "\u0120tiene", "7067": "\u00e0\u00b8\u00a3", "7068": "\u00ce\u00ae", "7069": "\u0120machen", "7070": "unte", "7071": "\u00d1\u0125\u00d1\u0123", "7072": "\u0120electr", "7073": "\u0120tutorial", "7074": "\u0120placed", "7075": "\u0120\u00ec\u013f\u00b4\u00ea\u00b1\u00b0", "7076": "\u0120Council", "7077": "\u00ed\u0138\u012a", "7078": "\u00b0\u00eb\u00a6\u00ac", "7079": "ahren", "7080": "\u0120\u00ea\u00b7\u00b8\u00eb\u0140\u013a", "7081": "\u0120prove", "7082": "fol", "7083": "\u0120quer", "7084": "\u0120cheap", "7085": "\u0120Father", "7086": "\u0120Power", "7087": "\u0135\u013e", "7088": "\u0120purs", "7089": "\u0120esp", "7090": "\u0120Bre", "7091": "\u00ea\u00b8\u00b0\u00eb", "7092": "omas", "7093": "\u00e6\u0125\u00b3", "7094": "\u00d0\u00b8\u00d0\u00bb\u00d1\u012e", "7095": "\u0120geht", "7096": "oster", "7097": "\u00ea\u00b3\u00bc", "7098": "\u0120files", "7099": "\u0120\u00d0\u00a7", "7100": "bell", "7101": "\u0120whom", "7102": "\u0120\u00eb\u013a", "7103": "\u0120excellent", "7104": "\u0120datab", "7105": "\u0120g\u00c3\u00b6", "7106": "\u0120\u00ec\u00a7\u0126\u00ec\u00a7\u013e", "7107": "\u0120belief", "7108": "jet", "7109": "\u0120jack", "7110": "\u0120swim", "7111": "rial", "7112": "umin", "7113": "auc", "7114": "\u0120soll", "7115": "\u0120essential", "7116": "\u00ed\u0137\u013a\u00eb\u012c\u0136", "7117": "\u0120evol", "7118": "chaft", "7119": "aine", "7120": "thlet", "7121": "\u0120incor", "7122": "\u0120reports", "7123": "\u0120definition", "7124": "kel", "7125": "\u0120circum", "7126": "\u0120produced", "7127": "\u0120\u00d7\u013d", "7128": "antic", "7129": "net", "7130": "\u0120award", "7131": "\u0120durch", "7132": "\u0120transp", "7133": "\u0120male", "7134": "\u00a6\u00ac\u00eb", "7135": "\u0120moon", "7136": "\u0120George", "7137": "\u0120flying", "7138": "i\u00c3\u00b3", "7139": "\u0120sources", "7140": "\u0120plenty", "7141": "\u0120Democr", "7142": "RO", "7143": "\u012000", "7144": "\u0120secure", "7145": "\u0120Bir", "7146": "rain", "7147": "\u0120zur", "7148": "\u0120efficient", "7149": "\u0120repeat", "7150": "\u0120methods", "7151": "\u0120calm", "7152": "\u0120discussed", "7153": "\u0120\u00ec\u0140\u012a\u00eb\u012c\u0136", "7154": "\u0120server", "7155": "anie", "7156": "\u0120Instead", "7157": "\u0120ideal", "7158": "\u0120conven", "7159": "\u0120hoping", "7160": "\u0120Tor", "7161": "\u0120depth", "7162": "\u0120heaven", "7163": "ENCE", "7164": "\u0120habit", "7165": "grad", "7166": "\u0120flag", "7167": "\u0120ine", "7168": "\u0120kh", "7169": "\u0120LI", "7170": "\u0120facing", "7171": "\u0120AU", "7172": "\u0120Tim", "7173": "\u0120gem", "7174": "\u0120Jul", "7175": "\u0120ela", "7176": "izza", "7177": "\u0120fellow", "7178": "\u0120quel", "7179": "\u0120spoke", "7180": "\u0120citizens", "7181": "uge", "7182": "\u00e9\u0125\u00bd", "7183": "\u0120pages", "7184": "\u0120fasc", "7185": "\u0120religious", "7186": "aten", "7187": "\u0120chapter", "7188": "\u0120Val", "7189": "\u0120consult", "7190": "\u0120Mill", "7191": "gl", "7192": "oper", "7193": "\u0120infin", "7194": "\u0120marriage", "7195": "\u0120medicine", "7196": "\u0120\u00d0\u00b4\u00d0\u00b2", "7197": "\u0120dogs", "7198": "\u0120instrument", "7199": "\u0120Exact", "7200": "\u00c3\u00a1n", "7201": "\u01202021", "7202": "\u0120fer", "7203": "\u0120wealth", "7204": "\u0120grade", "7205": "\u00d1\u012d\u00d1\u0127", "7206": "\u0120crime", "7207": "\u0120thread", "7208": "\u0120essa", "7209": "\u0120wine", "7210": "cohol", "7211": "pha", "7212": "\u00e0\u00b8\u0129", "7213": "ogue", "7214": "\u0120insurance", "7215": "arrator", "7216": "\u0120September", "7217": "\u0120vid", "7218": "\u0120Spirit", "7219": "\u0120gest", "7220": "\u0120Russian", "7221": "\u0120properties", "7222": "\u0120article", "7223": "\u0120underneath", "7224": "yer", "7225": "\u0120joint", "7226": "\u0120relatively", "7227": "\u0120inch", "7228": "\u0120despite", "7229": "\u0120Gree", "7230": "\u0120classic", "7231": "\u0120supporting", "7232": "\u0120instruct", "7233": "lusive", "7234": "\u0120diagn", "7235": "\u00e6\u012c", "7236": "\u0120administration", "7237": "\u00d0\u00b0\u00d0\u00b1\u00d0\u00be\u00d1\u0124", "7238": "\u0120Open", "7239": "\u00e6\u012b\u0122\u00e4\u00bb\u00a5", "7240": "\u0120\u00d0\u00bf\u00d0\u00be\u00d0\u00ba", "7241": "\u0120dollar", "7242": "\u0120consequ", "7243": "ober", "7244": "\u0120Germany", "7245": "\u0120terr", "7246": "\u0120QU", "7247": "\u0120\u00d0\u0135", "7248": "\u00e7\u00be", "7249": "\u0120stronger", "7250": "\u00c9\u013b", "7251": "\u0120\u00d9\u012c", "7252": "\u0120iPhone", "7253": "\u0120fabric", "7254": "\u00c3\u00bch", "7255": "\u0120enem", "7256": "\u00e6\u00af", "7257": "\u0120subt", "7258": "EE", "7259": "onde", "7260": "\u0120crew", "7261": "\u0120removed", "7262": "\u0120lady", "7263": "\u0120potentially", "7264": "\u0120\u00d0\u013f\u00d0\u00be", "7265": "yal", "7266": "\u0120sympt", "7267": "\u0120army", "7268": "\u0120introduced", "7269": "tes", "7270": "\u0120aspects", "7271": "14", "7272": "\u0120Lou", "7273": "\u0120)", "7274": "\u0120deploy", "7275": "pet", "7276": "\u0120han", "7277": "\u0120Watch", "7278": "\u0120weapons", "7279": "\u0120phen", "7280": "\u0120register", "7281": "\u0120einfach", "7282": "\u0120sport", "7283": "\u0120bridge", "7284": "\u0120inner", "7285": "\u0120minimum", "7286": "\u0120witness", "7287": "\u0120eso", "7288": "\u0120village", "7289": "\u0120owner", "7290": "\u00a6\u00ac\u00ea\u00b3\u0142", "7291": "\u0120scream", "7292": "iled", "7293": "\u0120pitch", "7294": "bru", "7295": "\u0120advance", "7296": "\u00e4\u00b8\u012f\u00e6\u013a\u00af", "7297": "\u0120suppose", "7298": "\u0120Att", "7299": "\u00d0\u00b5\u00d1\u0124\u00d1\u0123\u00d1\u0131", "7300": "\u0120differences", "7301": "aked", "7302": "\u0120interpret", "7303": "\u00c3\u00a6", "7304": "iendo", "7305": "\u0120absol", "7306": "\u0120\u00d0\u00b1\u00d1\u0125\u00d0\u00b4\u00d0\u00b5\u00d1\u0124", "7307": "\u0120\u00eb\u00b2", "7308": "\u0120trial", "7309": "\u0120thinks", "7310": "lying", "7311": "ception", "7312": "\u0120African", "7313": "\u0120chemical", "7314": "\u0120tape", "7315": "\u0120conversations", "7316": "\u0120distribution", "7317": "ti", "7318": "\u0120AI", "7319": "\u0120flash", "7320": "\u0120understood", "7321": "\u0120Government", "7322": "\u00e5\u00b0\u0131", "7323": "!?", "7324": "\u0120Sk", "7325": "\u00ea\u00b1\u00b0\u00eb", "7326": "rier", "7327": "TS", "7328": "\u0120According", "7329": "\u00d1\u0130\u00d1\u0124", "7330": "\u0120spons", "7331": "\u00d1\u0124\u00d0\u00be\u00d0\u00b1\u00d1\u012d", "7332": "\u0120valu", "7333": "erem", "7334": "ichtig", "7335": "\u0120resistance", "7336": "\u0120Gal", "7337": "gery", "7338": "\u0120begins", "7339": "\u0120advanced", "7340": "\u0120relevant", "7341": "\u0120politics", "7342": "\u0120Fam", "7343": "\u0120\u00c3\u00a7ok", "7344": "\u0120Never", "7345": "illing", "7346": "\u0120football", "7347": "\u00d0\u00b8\u00d0\u00b8", "7348": "\u0120ID", "7349": "\u0120Africa", "7350": "\u0120fingers", "7351": "\u0120\u00d0\u00b1\u00d0\u00be\u00d0\u00bb\u00d1\u012e", "7352": "\u0120\u00c3\u00a1", "7353": "\u0120clip", "7354": "\u0120Lat", "7355": "\u00e3\u0124\u0126", "7356": "\u0120\u00ec\u00a7\u0122\u00ea\u00b8\u012a", "7357": "esse", "7358": "\u0120voor", "7359": "\u0120aside", "7360": "\u00e6\u0140", "7361": "\u0120toward", "7362": "\u0120bat", "7363": "\u0120valid", "7364": "\u0120Mens", "7365": "\u0120completed", "7366": "\u00c4\u00b1\u00c4\u0141", "7367": "\u0120podcast", "7368": "\u0120Bon", "7369": "\u00db\u0134", "7370": "\u0120July", "7371": "ila", "7372": "\u0120package", "7373": "\u0120pulled", "7374": "char", "7375": "\u0120Mel", "7376": "ois", "7377": "\u0120south", "7378": "\u0120\u00eb\u0136", "7379": "\u0120importance", "7380": "\u0120pushing", "7381": "\u0120isol", "7382": "\u0120stands", "7383": "cill", "7384": "\u00e4\u00bc", "7385": "\u0120\u00f0\u0141", "7386": "ori", "7387": "\u00ea\u00b0\u0123", "7388": "\u0120homes", "7389": "\u0120concerns", "7390": "\u0120biz", "7391": "\u00e5\u00bd", "7392": "bie", "7393": "\u0120bis", "7394": "\u0120gear", "7395": "\u0120MS", "7396": "\u0120hun", "7397": "\u0120Matt", "7398": "\u00e1\u00ba\u00a3", "7399": "sey", "7400": "\u0120Secret", "7401": "\u0120odd", "7402": "\u0120Max", "7403": "olly", "7404": "ford", "7405": "\u0120SH", "7406": "\u0120replace", "7407": "\u0120navig", "7408": "\u0120ini", "7409": "\u00d0\u00b8\u00d1\u0131", "7410": "\u0120giant", "7411": "\u0120mand", "7412": "\u0120Happ", "7413": "TION", "7414": "gun", "7415": "iamo", "7416": "\u00ec\u0140\u0127\u00eb\u012d\u012a\u00eb\u012d\u00a4", "7417": "\u0120gap", "7418": "\u0120\u00c3\u00aatre", "7419": "\u0120classroom", "7420": "\u0120hyp", "7421": "aki", "7422": "\u00e8\u00ae", "7423": "isters", "7424": "acks", "7425": "\u0120\u00d1\u0123\u00d0\u00be", "7426": "\u0120bug", "7427": "\u0120grav", "7428": "amin", "7429": "\u0120everyday", "7430": "\u0120\u00ec\u00a1\u00b0", "7431": "\u0120garden", "7432": "cember", "7433": "\u0120esto", "7434": "\u00e5\u0139\u0130", "7435": "\u00d8\u00ac", "7436": "\u0141\u00b0", "7437": "\u00e5\u0123", "7438": "\u0120rom", "7439": "\u0120\u00ec\u0142\u013e\u00ea\u00b0\u0122", "7440": "\u0120falling", "7441": "\u0120fault", "7442": "elly", "7443": "\u0120chest", "7444": "\u0120\u00d0\u00bb\u00d0\u00b8", "7445": "\u0120potato", "7446": "\u0120buildings", "7447": "\u0120operating", "7448": "\u0120pare", "7449": "wr", "7450": "Don", "7451": "\u0120Four", "7452": "\u0120vul", "7453": "\u0120l\u00c3\u00a1", "7454": "\u0120frust", "7455": "\u0120Dann", "7456": "oles", "7457": "nya", "7458": "\u0120\u00ec\u00b6", "7459": "\u0120\u00d1\u0122\u00d0\u00b0\u00d1\u0123", "7460": "\u00d7\u013d", "7461": "\u0120a\u00c3\u0143", "7462": "word", "7463": "\u0120weapon", "7464": "\u0120obt", "7465": "\u0120Fall", "7466": "\u0120Steve", "7467": "\u0120mixed", "7468": "\u0120pode", "7469": "\u0120AS", "7470": "\u0120Leg", "7471": "\u0120desc", "7472": "\u0120split", "7473": "\u0120emergency", "7474": "\u0120Sing", "7475": "\u0120profit", "7476": "\u0120typical", "7477": "\u0120Donc", "7478": "\u0120announce", "7479": "\u0120Tex", "7480": "\u0120sacr", "7481": "ternal", "7482": "\u0120committee", "7483": "igo", "7484": "\u0120diam", "7485": "phas", "7486": "\u0120defe", "7487": "\u0120Profess", "7488": "\u0120decl", "7489": "\u00d1\u0125\u00d1\u0122", "7490": "22", "7491": "olf", "7492": "\u0120Mond", "7493": "uy", "7494": "\u0120ay", "7495": "\u0120lem", "7496": "\u0120lovely", "7497": "\u0120Could", "7498": "\u0120guar", "7499": "HH", "7500": "\u0120carefully", "7501": "\u0120Listen", "7502": "\u0120\u00d0\u00ba\u00d1\u0122", "7503": "\u0120youth", "7504": "\u0120Therefore", "7505": "\u0120dreams", "7506": "\u0120Jeff", "7507": "?]", "7508": "\u0120\u00eb\u012a", "7509": "DA", "7510": "\u0120bodies", "7511": "aux", "7512": "\u0120techniques", "7513": "\u0120mechanism", "7514": "\u00d7\u0135", "7515": "\u0120\u00d0\u00be\u00d0\u00bd\u00d0\u00b8", "7516": "\u0120desire", "7517": "\u00c3\u00ae", "7518": "\u0120Vo", "7519": "ques", "7520": "\u0120\u00d1\u0125\u00d0\u00b6\u00d0\u00b5", "7521": "\u0120Whoa", "7522": "\u0120Game", "7523": "\u0120hal", "7524": "anish", "7525": "\u0120practices", "7526": "500", "7527": "\u0120sorts", "7528": "ups", "7529": "ateful", "7530": "\u0120herself", "7531": "\u0120guitar", "7532": "\u0120propos", "7533": "\u0120sites", "7534": "\u0120beach", "7535": "\u0120\u00d7\u00a2", "7536": "\u00e7\u00ac\u00ac", "7537": "\u00d0\u00bd\u00d1\u0125", "7538": "\u0120dram", "7539": "\u0120Nove", "7540": "VE", "7541": "rant", "7542": "\u0120plot", "7543": "\u0120\u00ec\u0139\u00ac\u00ea\u00b8\u00b0", "7544": "\u0120Ca", "7545": "\u0120established", "7546": "\u01202015", "7547": "\u0120inspired", "7548": "\u0120announced", "7549": "\u00e4\u00b8\u00aa", "7550": "\u0120\u00d1\u0124\u00d1\u0122", "7551": "\u012026", "7552": "\u0120voy", "7553": "\u0120tech", "7554": "\u00ec\u0142\u0123", "7555": "\u0120processes", "7556": "onto", "7557": "\u0120Pan", "7558": "\u0120rapid", "7559": "istan", "7560": "\u0120197", "7561": "\u0120religion", "7562": "\u012028", "7563": "\u0120smile", "7564": "\u0120bab", "7565": "\u0120\u00da\u00a9", "7566": "\u0120Vir", "7567": "\u0120schedule", "7568": "\u0120execut", "7569": "\u0120pron", "7570": "\u00d1\u012f", "7571": "\u0120\u00d0\u013f\u00d1\u0125", "7572": "music", "7573": "\u00ec\u013d\u0132", "7574": "\u0120gan", "7575": "\u00ec\u012d\u0142", "7576": "\u0120default", "7577": "\u0120bem", "7578": "\u00d9\u012b", "7579": "\u0120forced", "7580": "\u0120Obviously", "7581": "\u0120stone", "7582": "\u0120tie", "7583": "\u0120drinking", "7584": "\u0120served", "7585": "Cause", "7586": "\u0120conference", "7587": "\u0120Exactly", "7588": "\u00e3\u0125\u012a", "7589": "\u0142\u013e", "7590": "\u00ec\u013b\u0122", "7591": "\u0120Ra", "7592": "\u0120fake", "7593": "\u0120diff", "7594": "\u00e3\u0123\u00a9", "7595": "\u0120challenging", "7596": "\u0120\u00ec\u00a4\u0133", "7597": "\u00cf\u0129", "7598": "\u00e4\u00bb\u0122\u00e9\u00ba\u00bc", "7599": "\u0120intelligence", "7600": "rete", "7601": "\u0120studying", "7602": "\u0120appoint", "7603": "\u0120tan", "7604": "\u0120\u00d0\u00b8\u00d0\u00bc", "7605": "\u0120curve", "7606": "\u0120Team", "7607": "\u0120Az", "7608": "\u0120\u00d0\u00b7\u00d0\u00b4", "7609": "\u0120Music", "7610": "field", "7611": "iration", "7612": "\u0120failed", "7613": "\u0120novel", "7614": "\u0120differently", "7615": "\u0120escape", "7616": "\u0120Yo", "7617": "\u0120October", "7618": "\u00c4\u00b1yor", "7619": "\u0120described", "7620": "\u0120convert", "7621": "acement", "7622": "\u0120hotel", "7623": "isation", "7624": "\u0120suis", "7625": "\u00e3\u0123\u0133", "7626": "\u00e5\u0143\u0132", "7627": "\u00e6\u0122\u0130", "7628": "\u0120walked", "7629": "200", "7630": "\u0120neighborhood", "7631": "isp", "7632": "\u0120Los", "7633": "\u0120hidden", "7634": "\u012027", "7635": "\u00d0\u00bb\u00d0\u00b5", "7636": "\u0120phr", "7637": "\u0120Island", "7638": "\u0120Street", "7639": "enda", "7640": "hips", "7641": "osure", "7642": "\u0120defined", "7643": "\u00e0\u00b8\u00a7", "7644": "\u0120vida", "7645": "\u0120label", "7646": "\u0120Everybody", "7647": "\u0120joke", "7648": "iao", "7649": "\u00d8\u00a7\u00d9\u0128", "7650": "\u0120athlet", "7651": "...\"", "7652": "\u0120Fire", "7653": "Do", "7654": "\u0120defense", "7655": "\u0120entertain", "7656": "\u00c3\u00a1t", "7657": "\u0120policies", "7658": "\u0120alcohol", "7659": "\u0120Engine", "7660": "\u0120gal", "7661": "\u0120Jud", "7662": "\u0120volunte", "7663": "icks", "7664": "eta", "7665": "agt", "7666": "\u0120\u00d7\u0137", "7667": "\u0120m\u00c3\u00b6", "7668": "13", "7669": "\u0120encoun", "7670": "\u0120eh", "7671": "\u0120orange", "7672": "\u0120absor", "7673": "\u0120spaces", "7674": "\u0120November", "7675": "\u00ea\u00b5\u00ac", "7676": "iat", "7677": "\u0120tam", "7678": "cknow", "7679": "\u0120storm", "7680": "\u0120Director", "7681": "\u0120pregn", "7682": "\u0120\u00ec\u013f\u00bc", "7683": "\u0120\u00d0\u00be\u00d0\u00bf", "7684": "\u0120resource", "7685": "\u0120bard", "7686": "new", "7687": "\u0120December", "7688": "uits", "7689": "\u0120weil", "7690": "\u0120construct", "7691": "si", "7692": "nic", "7693": "\u0120flour", "7694": "\u0120restrict", "7695": "\u00c3\u00bct", "7696": "\u0120entirely", "7697": "\u0120breaking", "7698": "entlich", "7699": "\u0120twenty", "7700": "\u0120causes", "7701": "\u0120elev", "7702": "\u0120Spr", "7703": "\u0120Internet", "7704": "\u0120kiss", "7705": "\u0120operations", "7706": "szy", "7707": "\u0120\u00eb\u012c", "7708": "\u0120scientists", "7709": "\u0120grown", "7710": "\u0120owners", "7711": "outs", "7712": "\u0120courses", "7713": "\u0120usual", "7714": "\u0120inn", "7715": "\u0120transm", "7716": "\u00c3\u00b1o", "7717": "\u0120nuest", "7718": "\u00d0\u00ba\u00d0\u00be\u00d0\u00b2", "7719": "\u0120category", "7720": "\u0120Life", "7721": "\u0120Plus", "7722": "\u0120atmos", "7723": "while", "7724": "\u0120records", "7725": "\u0120de\u00c4\u0141", "7726": "\u00eb\u012d\u00a4\u00ea\u00b3\u0142", "7727": "\u0120\u00ec\u0124\u00ac\u00eb\u0140", "7728": "\u0120requirements", "7729": "inn", "7730": "\u0120immig", "7731": "\u0120deeper", "7732": "\u00e7\u00b4", "7733": "\u0120apps", "7734": "\u0120colleagues", "7735": "\u00c5\u00bcy", "7736": "\u0120offers", "7737": "\u0120t\u00c3\u00a1", "7738": "\u0120column", "7739": "laud", "7740": "IR", "7741": "\u0120Ms", "7742": "\u0120exchange", "7743": "las", "7744": "\u0120Law", "7745": "\u0120Jon", "7746": "isse", "7747": "rogen", "7748": "\u0120moi", "7749": "\u00d7\u0139", "7750": "\u0120sending", "7751": "\u0120hello", "7752": "\u00d0\u00b5\u00d0\u00b5", "7753": "\u00c5\u013d\u00c4\u0129", "7754": "\u0120succeed", "7755": "\u0120suffering", "7756": "\u0120advert", "7757": "\u0120\u00ec\u00a3\u00bc", "7758": "\u00e7\u0141\u00a5\u00e9\u0123\u0135", "7759": "\u0120reco", "7760": "\u00c4\u00b1n\u00c4\u00b1", "7761": "\u0120\u00d0\u00ba\u00d0\u00be\u00d0\u00bc", "7762": "alley", "7763": "\u0120failure", "7764": "iej", "7765": "\u0120\u00eb\u0137\u012e", "7766": "\u0120drugs", "7767": "\u0120cuando", "7768": "\u0120\u00ec\u0138\u00b4\u00eb\u0138", "7769": "\u0120About", "7770": "\u0120quando", "7771": "90", "7772": "\u0120Fed", "7773": "17", "7774": "Sh", "7775": "inho", "7776": "\u0120Sunday", "7777": "\u0120Phil", "7778": "\u0120academic", "7779": "\u0120Inc", "7780": "\u0120mainten", "7781": "\u00e5\u0129\u00ba", "7782": "\u0120reward", "7783": "erd", "7784": "\u0120committed", "7785": "\u00ec\u012c\u00a4", "7786": "\u00d0\u00b3\u00d1\u0122", "7787": "\u0120standards", "7788": "\u0120kal", "7789": "\u0120intention", "7790": "\u0120Zh", "7791": "\u0120acknow", "7792": "\u00e4\u00bf", "7793": "\u0120===", "7794": "ogy", "7795": "\u00e5\u00a7", "7796": "\u0120films", "7797": "isk", "7798": "\u0120teeth", "7799": "\u0120struggle", "7800": "rd", "7801": "uen", "7802": "\u0120diss", "7803": "\u0120Dar", "7804": "amy", "7805": "\u0120enemies", "7806": "\u0120veloc", "7807": "\u0120Call", "7808": "umbs", "7809": "\u00d0\u00b8\u00d1\u0124\u00d0\u00b5\u00d0\u00bb\u00d1\u012e", "7810": "\u0120ocean", "7811": "\u00c3\u00a9d", "7812": "\u00ec\u013c\u00b0", "7813": "\u0120trem", "7814": "iento", "7815": "\u00d0\u00b5\u00d1\u012a\u00d1\u012e", "7816": "fficient", "7817": "\u0120bottle", "7818": "\u0120institution", "7819": "esty", "7820": "\u0120Han", "7821": "hab", "7822": "\u00eb\u012c\u013a", "7823": "\u0120arrest", "7824": "\u00e9\u0124\u0126", "7825": "\u0120letters", "7826": "ounce", "7827": "\u00ed\u012e", "7828": "An", "7829": "\u0120creates", "7830": "\u0120clock", "7831": "\u0120debt", "7832": "\u0120ancient", "7833": "ifications", "7834": "gi", "7835": "But", "7836": "\u0120Tu", "7837": "kl", "7838": "\u0120border", "7839": "\u0120ook", "7840": "\u0120Bay", "7841": "esta", "7842": "\u0120\u00eb\u00b3\u00b4\u00ec", "7843": "\u0120wra", "7844": "prene", "7845": "\u0120\u00ea\u00b2\u012e", "7846": "angle", "7847": "\u0120believed", "7848": "iency", "7849": "aka", "7850": "\u0120critic", "7851": "\u0120bomb", "7852": "\u0120ham", "7853": "\u0120\u00d0\u013d", "7854": "\u00ea\u00b5\u0143", "7855": "\u0120Guys", "7856": "rosoft", "7857": "\u0120crim", "7858": "etch", "7859": "ARR", "7860": "\u0120sight", "7861": "\u00d0\u00b8\u00d0\u00bd\u00d0\u00b0", "7862": "\u0120ain", "7863": "\u00e1\u00bb\u0133", "7864": "ische", "7865": "\u0120aux", "7866": "\u0120numer", "7867": "\u0120survive", "7868": "All", "7869": "BC", "7870": "\u0120sz", "7871": "\u0141\u00ac\u00eb", "7872": "\u0120jam", "7873": "\u0120Court", "7874": "\u0120alles", "7875": "\u0120trigger", "7876": "\u00d0\u0140", "7877": "\u0120format", "7878": "\u0120decades", "7879": "\u0120ces", "7880": "\u0120signs", "7881": "\u0120robot", "7882": "\u0120Church", "7883": "\u0120az", "7884": "\u0120soup", "7885": "\u0120Texas", "7886": "uten", "7887": "\u0120\u00d1\u0129\u00d1\u0124\u00d0\u00be\u00d0\u00b1\u00d1\u012d", "7888": "\u0120neighb", "7889": "\u0138\u00d7\u0136", "7890": "\u0120communicate", "7891": "\u00c5\u00a1", "7892": "\u0120elimin", "7893": "\u0120frequency", "7894": "hern", "7895": "idos", "7896": "\u0120emphas", "7897": "\u0120messages", "7898": "\u0120gender", "7899": "\u0120Wenn", "7900": "\u0120\u00d0\u00b2\u00d0\u00be", "7901": "\u0120prices", "7902": "olo", "7903": "\u0120\u00d0\u00bf\u00d0\u00be\u00d0\u00bd", "7904": "wing", "7905": "\u0120Fil", "7906": "\u00d0\u00b0\u00d0\u00b5\u00d0\u00bc", "7907": "\u0120Cur", "7908": "\u0120false", "7909": "\u0120fields", "7910": "\u0120s\u00c3\u00a9", "7911": "24", "7912": "\u0120mac", "7913": "u\u00c5\u0141", "7914": "\u0120layers", "7915": "\u0120advoc", "7916": "wan", "7917": "\u0120kar", "7918": "\u0120\u00c5\u0140", "7919": "\u0120decor", "7920": "\u0120walls", "7921": "oe", "7922": "issions", "7923": "\u0120resol", "7924": "\u00d7\u00a2", "7925": "\u0120Carol", "7926": "\u0120Vide", "7927": "leep", "7928": "\u0120YOU", "7929": "\u0120flip", "7930": "\u0120surgery", "7931": "\u0120chop", "7932": "UR", "7933": ".,", "7934": "\u0120agency", "7935": "\u0120wanting", "7936": "\u0120solar", "7937": "\u0120horiz", "7938": "\u0120Adam", "7939": "\u0120staying", "7940": "olic", "7941": "\u0120grateful", "7942": "\u0120remark", "7943": "\u0120technologies", "7944": "\u0120protein", "7945": "\u00e5\u00bf\u0125", "7946": "\u00d0\u00b4\u00d0\u00b5\u00d0\u00bb", "7947": "\u0120Mont", "7948": "\u0120shoulder", "7949": "\u0120za", "7950": "rey", "7951": "\u0120Ooh", "7952": "\u0120sty", "7953": "icar", "7954": "\u00d0\u00be\u00d1\u0124\u00d1\u0122", "7955": "\u0120route", "7956": "\u0120Turn", "7957": "\u0120bom", "7958": "\u0120debate", "7959": "\u0120possibility", "7960": "\u0120\u00ed\u0137\u00b4\u00ec", "7961": "apa", "7962": "\u0120invent", "7963": "\u00c3\u00bcrlich", "7964": "\u0120profile", "7965": "\u0120senior", "7966": "ppy", "7967": "vas", "7968": "\u0120mundo", "7969": "atever", "7970": "\u0120apparently", "7971": "ener", "7972": "\u00d7\u0132", "7973": "\u00e7\u0143", "7974": "\u0120precis", "7975": "\u0120align", "7976": "\u0120knife", "7977": "\u0120Robert", "7978": "\u00e5\u012d", "7979": "\u0120fool", "7980": "\u0120invite", "7981": "using", "7982": "\u0120circumst", "7983": "\u0120capture", "7984": "\u0120dough", "7985": "\u0120Sand", "7986": "\u0120seu", "7987": "\u0120News", "7988": "\u0120bite", "7989": "\u0120neut", "7990": "wide", "7991": "\u0120lecture", "7992": "\u0120\u00eb\u013a\u0132", "7993": "\u0120originally", "7994": "\u0120choices", "7995": "\u0120Gar", "7996": "\u0120verse", "7997": "\u0120lit", "7998": "\u0120196", "7999": "\u00ed\u0137\u0142", "8000": "\u0120measures", "8001": "\u00c3\u00a7\u00c3\u00b5es", "8002": "water", "8003": "rive", "8004": "\u0120zijn", "8005": "\u00ed\u0123", "8006": "\u0120Bus", "8007": "\u0120heb", "8008": "\u00d0\u00b5\u00d1\u0127", "8009": "\u0120Kar", "8010": "\u0120N\u00c3\u00a3o", "8011": "\u0120killing", "8012": "\u00e0\u00ae\u00aa", "8013": "\u0120mirror", "8014": "mod", "8015": "\u0120mol", "8016": "\u0120creation", "8017": "\u0120estim", "8018": "\u0120atmosphere", "8019": "\u0120gam", "8020": "\u0120tables", "8021": "isi", "8022": "\u0120Little", "8023": "\u0120tas", "8024": "\u0120Ele", "8025": "\u00c3\u00a9l", "8026": "\u0120scenes", "8027": "\u0120tone", "8028": "\u0120affected", "8029": "\u0120AUDI", "8030": "\u0120Brown", "8031": "If", "8032": "\u0120\u00d9\u0129", "8033": "\u0120Daniel", "8034": "\u00e7\u013e\u0141\u00e7\u013c\u0126", "8035": "quer", "8036": "chi", "8037": "\u00ed\u0137\u013a\u00eb", "8038": "\u0120mistakes", "8039": "\u0120sla", "8040": "\u00e3\u0124\u00a4", "8041": "\u0120entr", "8042": "\u0120\u00d0\u00b5\u00d1\u0123\u00d0\u00bb\u00d0\u00b8", "8043": "\u0120shout", "8044": "\u0120portion", "8045": "\u00d1\u0139", "8046": "\u0120previously", "8047": "\u00e1\u00bb\u013b", "8048": "\u0120\u00d0\u00bf\u00d1\u0122\u00d0\u00b5\u00d0\u00b4", "8049": "\u00d0\u00be\u00d1\u0123\u00d1\u012e", "8050": "\u0120heads", "8051": "\u00e7\u0130", "8052": "\u00e5\u0143", "8053": "\u00e5\u013e\u012d", "8054": "\u0120grass", "8055": "\u00e0\u00b8\u00b0", "8056": "cribe", "8057": "\u0120qu\u00c3\u00a9", "8058": "\u0120Spanish", "8059": "\u0120offered", "8060": "\u0120\u00d0\u00b1\u00d1\u012d\u00d0\u00bb\u00d0\u00be", "8061": "\u0120Cloud", "8062": "\u0120vector", "8063": "\u0120Huh", "8064": "\u0120kad", "8065": "ifts", "8066": "\u0120\u00ce\u00bd", "8067": "\u0120hungry", "8068": "\u00d0\u00a1", "8069": "\u0120parall", "8070": "AND", "8071": "\u0120v\u00c3\u0143deo", "8072": "izz", "8073": "\u0120occup", "8074": "\u0120\u00ed\u0136", "8075": "\u0120seek", "8076": "hes", "8077": "\u0120doors", "8078": "\u0120houses", "8079": "\u0120considering", "8080": "\u0120graduate", "8081": "\u0120fulf", "8082": "\u00e8\u00a1\u012e", "8083": "\u00e8\u00a3", "8084": "\u0120extreme", "8085": "\u0120flowers", "8086": "itate", "8087": "\u0120Pri", "8088": "\u0120fundamental", "8089": "\u00d1\u0129\u00d0\u00b0\u00d1\u0123", "8090": "\u00e8\u00af\u00b4", "8091": "\u0120texture", "8092": "\u012f\u013a", "8093": "\u0120AND", "8094": "\u00e0\u00ae\u00b1", "8095": "\u0120Tem", "8096": "\u0120nada", "8097": "\u00ec\u00a7\u0126", "8098": "\u0120celebrate", "8099": "ums", "8100": "\u0120pill", "8101": "\u0120\u00d0\u00b8\u00d0\u00bb\u00d0\u00b8", "8102": "going", "8103": "\u0120hip", "8104": "\u0120supported", "8105": "\u0120perman", "8106": "\u0120agreement", "8107": "\u0120tym", "8108": "\u0120\u00eb\u0133", "8109": "\u0135\u00a4\u00ec\u013f\u00b4", "8110": "\u0120purchase", "8111": "\u00ed\u0136", "8112": "\u0120Plan", "8113": "egen", "8114": "\u0120recover", "8115": "PU", "8116": "\u0120Microsoft", "8117": "duc", "8118": "\u0120holes", "8119": "\u0120dropped", "8120": "\u0120pig", "8121": "\u0120ending", "8122": "\u0120attacks", "8123": "bec", "8124": "\u0120ren", "8125": "\u0120rapp", "8126": "\u0120\u00ec\u013c\u00b0\u00eb\u00a6\u00ac", "8127": "\u0120terror", "8128": "\u0120\u00d7\u013b", "8129": "\u0120edit", "8130": "\u0120ao", "8131": ".</", "8132": "\u01202000", "8133": "\u0120Union", "8134": "\u0120scientific", "8135": "\u0120punch", "8136": "ortion", "8137": "\u0120puts", "8138": "\u0120Monday", "8139": "\u0120Jer", "8140": "EC", "8141": "\u0120matrix", "8142": "\u0120institutions", "8143": "\u0120mont", "8144": "\u0120exhib", "8145": "\u0120speaker", "8146": "\u0120meters", "8147": ".]", "8148": "\u0120serving", "8149": "\u0120database", "8150": "\u0120LAU", "8151": "\u0120damn", "8152": "\u0120poder", "8153": "!!!!", "8154": "\u0120\u00ed\u0138\u012a", "8155": "\u0120AUDIENCE", "8156": "\u0120jun", "8157": "\u0120AC", "8158": "\u0120Ital", "8159": "sec", "8160": "\u0120Young", "8161": "ruck", "8162": "ouve", "8163": "\u00e0\u00b8\u0126", "8164": "\u00e7\u012a", "8165": "\u0120\u00eb\u00a7\u012e\u00eb", "8166": "ading", "8167": "uration", "8168": "\u0120PS", "8169": "\u00d0\u013c", "8170": "\u0120Unf", "8171": "\u00e8\u0123", "8172": "oria", "8173": "\u0120manif", "8174": "\u0120sentence", "8175": "\u0120signed", "8176": "BS", "8177": "\u0120proof", "8178": "\u0120Muslim", "8179": "\u0120nuclear", "8180": "\u0120\u00d0\u00b3\u00d0\u00be\u00d0\u00b2\u00d0\u00be\u00d1\u0122", "8181": "\u0120woll", "8182": "\u0120favour", "8183": "\u0120WH", "8184": "\u0120vulner", "8185": "\u0120closely", "8186": "\u0120index", "8187": "\u00d1\u0124\u00d0\u00b5\u00d1\u0122", "8188": "achel", "8189": "\u0120capable", "8190": "\u0120Bes", "8191": "\u0120croch", "8192": "ekt", "8193": "\u0120sheet", "8194": "\u0120sees", "8195": "\u0120naturally", "8196": "\u0120England", "8197": "\u0120participate", "8198": "\u0120exists", "8199": "\u0120sharp", "8200": "py", "8201": "\u0120breakfast", "8202": "bow", "8203": "\u0120twist", "8204": "\u00e7\u00a7", "8205": "inating", "8206": "oti", "8207": "\u0120Found", "8208": "\u0120deux", "8209": "\u0120selected", "8210": "\u00ec\u0142\u0126", "8211": "osis", "8212": "\u0120presented", "8213": "\u0120linear", "8214": "\u0120\u00ea\u00b4", "8215": "\u0120kun", "8216": "\u00e9\u00bb\u0140", "8217": "\u00c3\u00b4ng", "8218": "\u0120b\u00c4\u013bd", "8219": "\u0120tempor", "8220": "\u0120cable", "8221": "\u0120\u00d0\u00bf\u00d1\u0122\u00d0\u00be\u00d1\u0123\u00d1\u0124\u00d0\u00be", "8222": "\u00d0\u00ba\u00d0\u00b5", "8223": "\u0120\u00d1\u0124\u00d0\u00b0\u00d0\u00bc", "8224": "\u0120winning", "8225": "\u00e8\u0125\u00bd", "8226": "\u013a\u00eb\u0131\u0126", "8227": "\u01202014", "8228": "\u0120\u00ec\u0139\u00ac\u00eb", "8229": "\u0120UN", "8230": "\u0120Click", "8231": "\u0120prepar", "8232": "\u0120TO", "8233": "\u0120sua", "8234": "\u0120Ham", "8235": "\u0120l\u00c3\u00a4", "8236": "\u0120absolute", "8237": "\u0120engaged", "8238": "\u00e5\u00a6\u0124", "8239": "\u0120Hmm", "8240": "\u0120dash", "8241": "TA", "8242": "\u00c3\u00b1os", "8243": "\u0120spo", "8244": "\u00e7\u0136\u0141", "8245": ")]", "8246": "\u0120tested", "8247": "\u0120blank", "8248": "\u0120reject", "8249": "\u0120assim", "8250": "\u0120rear", "8251": "\u0120Str", "8252": "\u0120crash", "8253": "\u0120\u00d0\u00bd\u00d0\u00b0\u00d1\u012a", "8254": "\u00d0\u00b8\u00d1\u0124\u00d1\u0123\u00d1\u0131", "8255": "\u0120colon", "8256": "\u0120Unt", "8257": "\u0120Ce", "8258": "\u0120acid", "8259": "\u00e9\u0139", "8260": "\u0120kit", "8261": "ibilities", "8262": "uto", "8263": "\u0120valuable", "8264": "list", "8265": "\u0120parties", "8266": "\u0120Mm", "8267": "\u0120colour", "8268": "\u0120cham", "8269": "\u0120steel", "8270": "\u0120Imp", "8271": "\u0120funds", "8272": "\u0120DNA", "8273": "\u0120Ken", "8274": "inde", "8275": "\u00ed\u0137\u00b4\u00ec\u0126\u013e", "8276": "\u00e3\u0125\u0125", "8277": "\u0120Happy", "8278": "\u0120Use", "8279": "\u0120Light", "8280": "\u0120lip", "8281": "\u0120authority", "8282": "\u0120Long", "8283": "\u0120Iran", "8284": "\u0120ell", "8285": "\u0120coordin", "8286": "\u0120subm", "8287": "\u0120recorded", "8288": "\u00d1\u0125\u00d1\u012a", "8289": "\u0120delta", "8290": "\u0120reform", "8291": "\u0120Still", "8292": "\u0120oppon", "8293": "\u0120allowing", "8294": "\u0120patterns", "8295": "\u0120letting", "8296": "\u0120sleeping", "8297": "Okay", "8298": "\u0120pizza", "8299": "\u0120\u00c5\u013d", "8300": "\u0120\u00d0\u00b4\u00d0\u00be\u00d0\u00bb", "8301": "\u0120talent", "8302": "ensions", "8303": "\u0120environmental", "8304": "\u0120professor", "8305": "\u0120shots", "8306": "\u0120contains", "8307": "ugar", "8308": "yo", "8309": "\u0131\u013b", "8310": "\u0120sequence", "8311": "\u00ce\u00b9\u00ce\u00b1", "8312": "ader", "8313": "\u00e9\u0142", "8314": "\u00d0\u00b0\u00d1\u0129", "8315": "\u00d9\u0128\u00d8\u00a7", "8316": "\u0120Ik", "8317": "\u0120tous", "8318": "uries", "8319": "\u0120pounds", "8320": "\u0120external", "8321": "iments", "8322": "\u0120vraiment", "8323": "\u00ec\u012d\u00a4", "8324": "\u0120happiness", "8325": "\u0120prze", "8326": "estic", "8327": "\u0120establish", "8328": "\u0120Flor", "8329": "\u0120rig", "8330": "\u0120honey", "8331": "\u0120pul", "8332": "\u0120symptoms", "8333": "\u0120brows", "8334": "\u00d0\u00b5\u00d0\u00bb\u00d0\u00b8", "8335": "\u0120\u00cf\u0126\u00ce\u00bf", "8336": "\u0120shirt", "8337": "\u0120Techn", "8338": "\u0120Program", "8339": "\u00d0\u00b5\u00d0\u00bc\u00d1\u0125", "8340": "\u0120upset", "8341": "\u0120guest", "8342": "burg", "8343": "\u0120unlike", "8344": "\u0120somewhat", "8345": "\u0120hanging", "8346": "ae", "8347": "\u0120rum", "8348": "\u0120photograph", "8349": "\u0120Li", "8350": "\u00e5\u013d\u0140", "8351": "\u0120stable", "8352": "\u0120voltage", "8353": "\u0120Ell", "8354": "\u0120entreprene", "8355": "uses", "8356": "assen", "8357": "\u00ac\u00b8", "8358": "\u0120\u00eb\u00a7\u0130\u00ec\u013f\u00b4", "8359": "\u0120ghost", "8360": "\u0120sagen", "8361": "\u0120combat", "8362": "\u0120g\u00c3\u00b6r", "8363": "\u0120Cap", "8364": "\u0120s\u00c3\u00a3o", "8365": "\u0120Kat", "8366": "\u0120forma", "8367": "\u0120summ", "8368": "\u0120march", "8369": "\u0120vast", "8370": "\u00c3\u00bck", "8371": "\u0120commitment", "8372": "imos", "8373": "Let", "8374": "\u0120dedicated", "8375": "iste", "8376": "lay", "8377": "\u00e9\u0122\u013b\u00e6\u00a8\u00a3", "8378": "\u0120topics", "8379": "\u0120machines", "8380": "\u0120Paris", "8381": "\u0120\u00ec\u013f\u00b4\u00eb\u0141\u00b0", "8382": "\u0120mini", "8383": "\u0120markets", "8384": "\u0120ko", "8385": "\u00ce\u00b4", "8386": "ville", "8387": "\u0120goodness", "8388": "\u0120framework", "8389": "ulture", "8390": "\u0120basket", "8391": "essa", "8392": "\u00d0\u00b0\u00d1\u0128\u00d0\u00b8", "8393": "uster", "8394": "\u0120\u00ea\u00b9", "8395": "\u00e4\u00bd\u0128", "8396": "\u0120extent", "8397": "\u0120Menschen", "8398": "\u0120consistent", "8399": "\u0120auto", "8400": "rip", "8401": "\u0120mere", "8402": "\u00e0\u00af\u012a", "8403": "\u00d1\u0136", "8404": "\u0120elle", "8405": "\u012e\u0122\u00eb", "8406": "oken", "8407": "\u0120pulling", "8408": "\u0120cow", "8409": "outhern", "8410": "\u0120meetings", "8411": "\u0120cada", "8412": "\u00d0\u00bd\u00d1\u012d\u00d0\u00bc", "8413": "iente", "8414": "\u0120bast", "8415": "aning", "8416": "\u0120focusing", "8417": "road", "8418": "\u0120roof", "8419": "\u0120Professor", "8420": "\u0120SP", "8421": "\u00d1\u0122\u00d0\u00b0\u00d0\u00b7", "8422": "\u0120nood", "8423": "\u0120400", "8424": "\u0120\u00ec\u013f\u00b4\u00ec\u0142\u013e", "8425": "\u00ec\u0140\u012a", "8426": "\u0120Mount", "8427": "\u00d0\u00b5\u00d0\u00b9\u00d1\u0129\u00d0\u00b0\u00d1\u0123", "8428": "\u0120\u00d7\u0132", "8429": "Why", "8430": "\u00d7\u0140", "8431": "\u00c4\u00b1nda", "8432": "\u0120positions", "8433": "\u00c3\u00a8me", "8434": "\u00e7\u0131", "8435": "\u0120\u00d0\u00b4\u00d1\u0122\u00d1\u0125\u00d0\u00b3", "8436": "iyor", "8437": "\u0120passing", "8438": "\u0120assemb", "8439": "\u0120smoke", "8440": "\u0120til", "8441": "\u0120museum", "8442": "\u00d0\u0136", "8443": "\u0120Person", "8444": "\u00d0\u00bd\u00d0\u00b8\u00d0\u00bc", "8445": "leich", "8446": "\u0120intent", "8447": "\u0120sque", "8448": "\u0120craft", "8449": "\u00ec\u012a\u013a", "8450": "orsun", "8451": "\u0120150", "8452": "\u0120brothers", "8453": "vor", "8454": "\u0120Speaker", "8455": "icians", "8456": "\u0120officer", "8457": "\u0120i\u00c3\u00a7in", "8458": "\u0120\u00d1\u0124\u00d0\u00b5\u00d0\u00b1", "8459": "\u0120scratch", "8460": "\u0120generate", "8461": "yi", "8462": "\u0120emotions", "8463": "aus", "8464": "\u00ec\u00b9\u013a", "8465": "45", "8466": "\u0120Link", "8467": "\u0120Real", "8468": "\u0120ate", "8469": "\u0120\u00d0\u00bd\u00d0\u00b0\u00d0\u00b4", "8470": "\u0120native", "8471": "\u00e1\u00bb\u0129", "8472": "\u00c4\u00b1y", "8473": "\u0120enorm", "8474": "\u0120blocks", "8475": "\u0120faces", "8476": "acc", "8477": "iveness", "8478": "\u0120inches", "8479": "uis", "8480": "heit", "8481": "\u0120streets", "8482": "\u0120probability", "8483": "asi", "8484": "\u0120impl", "8485": "\u0120\u00e0\u00a4", "8486": "urday", "8487": "\u0120faut", "8488": "omy", "8489": "\u0120pip", "8490": "\u0120illust", "8491": "\u00e0\u00ae\u00af", "8492": "\u0120Jun", "8493": "\u0120lying", "8494": "99", "8495": "\u0120memories", "8496": "\u0120practical", "8497": "iana", "8498": "onces", "8499": "\u0120viewers", "8500": "\u0120Thomas", "8501": "\u00e6\u012e", "8502": "\u0120Girl", "8503": "\u0120Whether", "8504": "\u0120innovation", "8505": "\u0120disappoint", "8506": "My", "8507": "\u0120winner", "8508": "\u0120ig", "8509": "\u0120ratio", "8510": "\u0120Blue", "8511": "\u0120Sub", "8512": "\u0120documents", "8513": "\u0120formula", "8514": "\u0120\u00eb\u00a9", "8515": "\u00d1\u012c", "8516": "\u0120appeared", "8517": "var", "8518": "andon", "8519": "\u0120spray", "8520": "mak", "8521": "\u0120QUES", "8522": "KE", "8523": "\u0120wedding", "8524": "Re", "8525": "\u00d0\u00b0\u00d1\u0124\u00d1\u012e\u00d1\u0123\u00d1\u0131", "8526": "\u0120uno", "8527": "\u0120gall", "8528": "\u00ed\u0126\u00b0", "8529": "cio", "8530": "cers", "8531": "\u0120\u00d0\u00bc\u00d0\u00bd\u00d0\u00b5", "8532": "\u0120pepper", "8533": "\u00e3\u0123\u0139\u00e3\u0123\u0141", "8534": "\u0120Febru", "8535": "\u0120alternative", "8536": "\u0120fu", "8537": "\u0120Basically", "8538": "\u0120Smith", "8539": "\u0120gate", "8540": "\u0120Tam", "8541": "\u0120Whatever", "8542": "\u0120approxim", "8543": "\u0120concert", "8544": "\u0120juice", "8545": "\u0120Especially", "8546": "\u0120dynamic", "8547": "Qu", "8548": "onder", "8549": "ivery", "8550": "\u0120bang", "8551": "\u0120rul", "8552": "\u0120Party", "8553": "\u0120scholars", "8554": "\u0120crying", "8555": "j\u00c4\u0127", "8556": "\u00d0\u00a2", "8557": "\u0120QUESTION", "8558": "rid", "8559": "\u0120accurate", "8560": "\u00c3\u00a7o", "8561": "\u0120Cool", "8562": "coin", "8563": "\u0120\u00ec\u0125\u0123", "8564": "\u0120Fo", "8565": "\u0120pr\u00c3\u00b3", "8566": "\u0120Roman", "8567": "\u0120\u00d0\u0141\u00d1\u0122", "8568": "\u0120checking", "8569": "?'", "8570": "\u0120attached", "8571": "\u0120Islam", "8572": "\u0120experts", "8573": "\u00d7\u00a7", "8574": "\u0120Const", "8575": "\u00d1\u0122\u00d0\u00b0\u00d0\u00bd", "8576": "\u0120shadow", "8577": "\u0120delay", "8578": "\u00d0\u0134", "8579": "\u0120orient", "8580": "\u00eb\u0124", "8581": "ellen", "8582": "\u0120as\u00c3\u0143", "8583": "\u00d0\u00ba\u00d0\u00b8\u00d0\u00b9", "8584": "\u0120historical", "8585": "\u0120uncom", "8586": "omp", "8587": "hm", "8588": "\u0120bil", "8589": "\u0120planned", "8590": "\u0120Unfortunately", "8591": "\u0120Windows", "8592": "\u00d8\u00b4", "8593": "\u0120encounter", "8594": "\u0120\u00ec\u0125\u013f\u00ea\u00b0\u0123", "8595": "\u0120regarding", "8596": "arrass", "8597": "\u0120recovery", "8598": "\u0120Hur", "8599": "\u0120Emp", "8600": "\u0120s\u00c3\u0143", "8601": "\u00ed\u0137\u013a\u00ea\u00b2\u012e", "8602": "\u0120defend", "8603": "\u0120cet", "8604": "asse", "8605": "\u00eb\u012d\u00a8", "8606": "okes", "8607": "\u0120remote", "8608": "\u0120\u00d8\u00b3", "8609": "\u0120arts", "8610": "isco", "8611": "aucoup", "8612": "\u0120Mexico", "8613": "\u0120\u00d0\u00bf\u00d0\u00be\u00d0\u00bc", "8614": "\u0120chosen", "8615": "emat", "8616": "oding", "8617": "\u0120flower", "8618": "standing", "8619": "\u0120Associ", "8620": "ummy", "8621": "ILL", "8622": "\u0120cameras", "8623": "\u00e5\u0128\u012f", "8624": "\u0120\u00e6\u012a\u0133", "8625": "\u0120Arab", "8626": "\u0120Sum", "8627": "\u0120tego", "8628": "\u0120criminal", "8629": "iform", "8630": "\u0120stack", "8631": "\u00ec\u0126\u00b1", "8632": "\u0120Donald", "8633": "\u0120Old", "8634": "\u0120dust", "8635": "\u0120Jose", "8636": "\u0120hem", "8637": "\u0120increases", "8638": "osta", "8639": "\u0120dying", "8640": "\u0120River", "8641": "\u0120moist", "8642": "\u00d1\u0124\u00d0\u00be\u00d0\u00b2", "8643": "ares", "8644": "\u0120discipl", "8645": "rait", "8646": "\u0120Has", "8647": "ygen", "8648": "\u0120Tre", "8649": "\u0120\u00eb\u00b4", "8650": "\u0120languages", "8651": "\u0120Hen", "8652": "\u012036", "8653": "\u0120Disney", "8654": "ints", "8655": "\u0120algo", "8656": "\u0120foods", "8657": "\u0120setup", "8658": "lan", "8659": "\u0120effectively", "8660": "\u0120wherever", "8661": "\u00e6\u013e\u0122", "8662": "\u0120unter", "8663": "formation", "8664": "\u0120hits", "8665": "\u0120principle", "8666": "\u0120tastes", "8667": "\u00a7\u012a", "8668": "\u0120treated", "8669": "\u0120resolution", "8670": "\u0120privile", "8671": "\u0120IP", "8672": "\u00eb\u00b0", "8673": "\u0120territ", "8674": "\u0120powers", "8675": "\u0120\u00ed\u0125", "8676": "\u0120Vict", "8677": "\u0120bother", "8678": "\u0120Chair", "8679": "\u0120muscle", "8680": "\u0120sale", "8681": "\u0120decent", "8682": "\u0120coup", "8683": "\u0120Squ", "8684": "\u0120coast", "8685": "\u0120rod", "8686": "\u0120Franc", "8687": "\u0120bathroom", "8688": "\u0120shopping", "8689": "\u0120\u00d0\u00bc\u00d0\u00be\u00d0\u00b6\u00d0\u00b5\u00d1\u0124", "8690": "\u0120i\u00c5\u0141", "8691": "\u0120Stay", "8692": "grade", "8693": "\u0120formed", "8694": "\u0120ba\u00c5\u0141", "8695": "\u0120brill", "8696": "jour", "8697": "\u00ed\u0138", "8698": "\u00e5\u013d\u0142", "8699": "wie", "8700": "icate", "8701": "\u0120\u00e2\u0122\u012d\u00e2\u0122\u012d", "8702": "\u0120Norm", "8703": "\u00e0\u00a5", "8704": "\u0120mainly", "8705": "\u0120Space", "8706": "\u0120tremend", "8707": "iti", "8708": "\u00e0\u00ae\u00b5", "8709": "UT", "8710": "Music", "8711": "\u0120February", "8712": "\u0120contrast", "8713": "\u00e5\u00af\u00b9", "8714": "esting", "8715": "\u0120\u00ce\u00b4", "8716": "inging", "8717": "\u0120\u00d9\u0128", "8718": "ssen", "8719": "\u0120Home", "8720": "\u0120shell", "8721": "\u0120Hay", "8722": "\u0120aller", "8723": "\u0120Ap", "8724": "\u0120Western", "8725": "\u0120Word", "8726": "\u0120PLAY", "8727": "\u0120\u00eb\u0127", "8728": "\u0120Aqu", "8729": "\u0120entry", "8730": "\u0120launched", "8731": "\u0120Mem", "8732": "\u0120Pour", "8733": "\u0120zwe", "8734": "\u0120Someone", "8735": "inge", "8736": "\u0120Prob", "8737": "mble", "8738": "\u0120Rel", "8739": "uru", "8740": "\u0120rhy", "8741": "\u0120gig", "8742": "\u0120engagement", "8743": "\u00c3\u00bc\u00c5\u0141", "8744": "\u00e3\u0124\u0129", "8745": "\u0120offering", "8746": "whel", "8747": "\u0120actor", "8748": "\u0120\u00e5\u00b0\u012f", "8749": "APP", "8750": "west", "8751": "\u0120Roy", "8752": "\u0120returned", "8753": "\u0120silver", "8754": "rating", "8755": "\u0120estar", "8756": "\u0120ske", "8757": "\u0120ti", "8758": "ication", "8759": "\u0120annoy", "8760": "\u0120deeply", "8761": "\u00ec\u013c\u00a9", "8762": "\u0120nat\u00c3\u00bcrlich", "8763": "ELL", "8764": "\u0120Cath", "8765": "\u0120rail", "8766": "\u00d0\u00bd\u00d0\u00be\u00d0\u00b2", "8767": "\u0120prayer", "8768": "col", "8769": "GB", "8770": "\u0120\u00d0\u00a2\u00d0\u00b0\u00d0\u00ba", "8771": "\u0120gla", "8772": "\u0120Water", "8773": "\u00d1\u0131\u00d1\u0124\u00d1\u012e", "8774": "\u0120Non", "8775": "\u00c3\u00b4t", "8776": "agers", "8777": "\u0120hug", "8778": "\u0120doctors", "8779": "ancing", "8780": "\u0120Talk", "8781": "zing", "8782": "\u0120hadn", "8783": "\u0120lui", "8784": "\u0120at\u00c3\u00a9", "8785": "\u0120\u00ea\u00b7\u00b8\u00eb\u00a6\u00ac\u00ea\u00b3\u0142", "8786": "\u00ea\u00b9\u012e\u00ec\u00a7\u0122", "8787": "ici", "8788": "\u0120incorpor", "8789": "\u0120Di", "8790": "zil", "8791": "anya", "8792": "\u00aa\u0127", "8793": "\u0120\u00c2\u00bb", "8794": "35", "8795": "\u0120beer", "8796": "\u0120beaucoup", "8797": "\u0120MC", "8798": "\u0120ears", "8799": "ogen", "8800": "\u0120Quest", "8801": "eda", "8802": "\u00e6\u013e\u00ac", "8803": "\u0120Saturday", "8804": "\u0120falls", "8805": "ston", "8806": "bles", "8807": "\u0120thus", "8808": "\u0120\u00eb\u0126\u00a4", "8809": "\u00e0\u00b9\u0126", "8810": "\u0120therm", "8811": "\u0120diversity", "8812": "\u0120soy", "8813": "azu", "8814": "imp", "8815": "\u0120television", "8816": "\u00e9\u0123\u0130", "8817": "\u0120\u00d7\u00a9\u00d7\u013e", "8818": "\u0120wur", "8819": "\u0120edges", "8820": "\u0120lessons", "8821": "\u0120Aud", "8822": "\u00e3\u0123\u0139\u00e3\u0123\u00a6", "8823": "voir", "8824": "amento", "8825": "\u0120explained", "8826": "\u0120\u00d0\u00be\u00d0\u00bd\u00d0\u00b0", "8827": "\u0120temps", "8828": "\u00cf\u0130", "8829": "They", "8830": "\u0120surprising", "8831": "\u00d0\u00b0\u00d0\u00bd\u00d0\u00b8\u00d1\u0131", "8832": "\u0120Drag", "8833": "\u00e9\u013f\u00a2", "8834": "\u0120Cle", "8835": "\u0120nam", "8836": "\u0120\u00d0\u00bb\u00d1\u0130\u00d0\u00b4", "8837": "\u0120hardware", "8838": "\u0120thumbs", "8839": "\u0120\u00ce\u00ba\u00ce\u00b1\u00ce\u00b9", "8840": "\u0120Top", "8841": "\u0120\u00c3\u00a5", "8842": "\u00e9\u013b", "8843": "\u00d7\u0137\u00d7\u00a8", "8844": "\u0120\u00ea\u00b7\u00b8\u00eb\u0140\u013a\u00ec\u0126\u013e", "8845": "\u0120Budd", "8846": "thern", "8847": "\u0120interests", "8848": "\u00d8\u00b0", "8849": "\u0120developers", "8850": "\u0120hitting", "8851": "\u0120opposed", "8852": "\u0120hearts", "8853": "\u0120Android", "8854": "\u0120Hand", "8855": "\u0120represents", "8856": "glich", "8857": "\u00ed\u012c\u00b8", "8858": "\u012032", "8859": "\u0120domin", "8860": "\u0120Ann", "8861": "\u00e4\u00b8\u0122\u00e4\u00b8\u012d", "8862": "\u0120\u00c3\u00a9t\u00c3\u00a9", "8863": "\u0120zoom", "8864": "\u0120kt\u00c3\u00b3re", "8865": "\u0120adults", "8866": "\u0120ordered", "8867": "\u0120picking", "8868": "\u0120Hong", "8869": "\u0120filming", "8870": "\u00e6\u0122\u013f", "8871": "\u0120seed", "8872": "\u0120AT", "8873": "\u0120calculate", "8874": "\u0120\u00d0\u00ba\u00d0\u00be\u00d0\u00b3\u00d0\u00b4\u00d0\u00b0", "8875": "\u0120Os", "8876": "icit", "8877": "\u0120remaining", "8878": "\u0120segu", "8879": "\u00c3\u00bb", "8880": "\u0120\u00ec\u013a\u00a4\u00eb\u012c\u013a", "8881": "\u0120arrive", "8882": "\u0120congr",
[...]
